<unk>	0
<s>	0
</s>	0
න්	-0
▁ක	-1
▁ව	-2
▁ස	-3
▁ප	-4
▁ම	-5
ත්	-6
▁අ	-7
ිය	-8
ක්	-9
▁ද	-10
▁න	-11
්‍	-12
▁හ	-13
▁ත	-14
▁ග	-15
▁බ	-16
න්න	-17
▁එ	-18
ම්	-19
ුව	-20
ති	-21
්‍ර	-22
▁ල	-23
ාව	-24
ස්	-25
ීම	-26
ෙන	-27
ර්	-28
ින්	-29
▁වි	-30
▁ය	-31
▁ඇ	-32
▁කර	-33
ල්	-34
වා	-35
යි	-36
ෙන්	-37
▁ර	-38
ිර	-39
තු	-40
▁ඉ	-41
ාර	-42
▁ඔ	-43
නය	-44
ගේ	-45
▁සි	-46
▁ආ	-47
ැන	-48
ික	-49
්‍ය	-50
▁ජ	-51
මා	-52
ලා	-53
▁නි	-54
රු	-55
..	-56
▁ප්‍ර	-57
▁ඒ	-58
යේ	-59
▁උ	-60
දු	-61
ාල	-62
හි	-63
නා	-64
තා	-65
යක්	-66
තර	-67
ුණ	-68
▁මෙ	-69
▁මේ	-70
▁බව	-71
▁අප	-72
▁කිය	-73
වි	-74
▁හැ	-75
ිබ	-76
▁නො	-77
යා	-78
▁වැ	-79
▁සහ	-80
ින	-81
▁එක	-82
ීමට	-83
න්නේ	-84
හා	-85
දී	-86
සා	-87
▁වෙ	-88
▁අව	-89
▁කිර	-90
ද්	-91
ත්‍	-92
දා	-93
▁පි	-94
රි	-95
▁දෙ	-96
▁නැ	-97
▁පැ	-98
සු	-99
ක්ෂ	-100
▁කො	-101
ලි	-102
▁කළ	-103
නු	-104
ත්ත	-105
මු	-106
ණය	-107
කු	-108
ත්ව	-109
▁ඇති	-110
දි	-111
▁පු	-112
▁ගැන	-113
වු	-114
ාර්	-115
සේ	-116
කි	-117
යට	-118
▁තිබ	-119
▁හි	-120
සි	-121
▁සම	-122
ියා	-123
ට්	-124
▁සිට	-125
▁ශ	-126
යෙන්	-127
මි	-128
▁සඳ	-129
▁වෙන	-130
▁හා	-131
කර	-132
වර	-133
▁සං	-134
ල්ල	-135
▁ඔබ	-136
හු	-137
▁මහ	-138
රා	-139
යක	-140
යන්	-141
▁දැ	-142
කා	-143
▁වැඩ	-144
▁අතර	-145
▁වන	-146
▁2	-147
▁යු	-148
▁මු	-149
▁මා	-150
▁කරන	-151
නි	-152
ිරි	-153
තාව	-154
▁1	-155
බා	-156
ෙස	-157
වත්	-158
න්ද	-159
▁කිරීම	-160
ඩා	-161
මින්	-162
▁පො	-163
ේශ	-164
වල	-165
▁ක්‍ර	-166
▁කි	-167
හැ	-168
▁සඳහා	-169
▁භ	-170
තිය	-171
ංග	-172
▁(	-173
ැබ	-174
▁ස්	-175
▁සම්	-176
ත්‍ර	-177
▁ච	-178
▁ලෙස	-179
ෙක්	-180
ුවන්	-181
▁වූ	-182
▁තු	-183
ගෙන	-184
▁බැ	-185
▁දු	-186
කට	-187
▁බල	-188
▁අන	-189
▁තම	-190
▁නම්	-191
කාර	-192
▁ඇත	-193
පා	-194
පු	-195
තුව	-196
▁විශ	-197
වේ	-198
▁මෙම	-199
ණ්	-200
▁සැ	-201
▁නිසා	-202
▁සා	-203
▁පිළ	-204
යු	-205
ෙර	-206
▁ඔහු	-207
ව්	-208
▁ලබා	-209
ුණු	-210
▁දි	-211
▁සු	-212
ියේ	-213
▁ට	-214
වන	-215
හන්	-216
මේ	-217
ිප	-218
▁එක්	-219
ද්ධ	-220
හෙ	-221
▁වල	-222
▁කු	-223
▁එය	-224
▁සිය	-225
▁වේ	-226
▁එම	-227
ධා	-228
▁අද	-229
ීය	-230
▁විස	-231
▁කරන්න	-232
‍්‍ර	-233
▁තිය	-234
▁ජන	-235
...	-236
වුන්	-237
න්ත	-238
වස	-239
▁හෝ	-240
▁හො	-241
▁20	-242
▁මම	-243
▁වී	-244
ාප	-245
වැ	-246
ධ්‍ය	-247
ටි	-248
▁අපි	-249
▁රා	-250
ලු	-251
ාවේ	-252
▁මි	-253
▁ලැබ	-254
▁රට	-255
ංක	-256
ස්ථ	-257
▁යුතු	-258
ළු	-259
▁දී	-260
▁කැ	-261
ෙකු	-262
ිත	-263
ෂ්	-264
ැයි	-265
▁විය	-266
සර	-267
▁යන	-268
▁ගො	-269
මක්	-270
▁කාල	-271
ියට	-272
න්ධ	-273
ඩු	-274
ැනි	-275
▁අය	-276
▁කට	-277
කිය	-278
▁සමා	-279
▁කිරීමට	-280
ත්ම	-281
▁සේ	-282
▁පා	-283
▁මො	-284
ෝග	-285
ච්	-286
න්ට	-287
▁කෙ	-288
යින්	-289
ාම	-290
▁ඔවුන්	-291
ිනි	-292
▁හැකි	-293
ප්	-294
▁පරි	-295
ණි	-296
හො	-297
ගම	-298
▁විසින්	-299
▁ශ්‍ර	-300
රුව	-301
▁ගන්න	-302
ඩි	-303
ද්‍ය	-304
ැති	-305
▁දැන	-306
▁කල	-307
ෙනවා	-308
▁තර	-309
▁ගැ	-310
ටු	-311
▁බො	-312
ක්‍	-313
පත්	-314
▁පහ	-315
▁ඉද	-316
▁විට	-317
ඳු	-318
▁වගේ	-319
▁වැඩි	-320
ගත	-321
▁ජා	-322
තික	-323
▁ඕ	-324
▁උප	-325
▁ආර	-326
▁මත	-327
▁පිළිබ	-328
වෙ	-329
ණ්ඩ	-330
ෙහි	-331
▁රැ	-332
ටත්	-333
▁සම්බ	-334
▁රාජ	-335
වීම	-336
ඩ්	-337
දේශ	-338
නම්	-339
නේ	-340
වී	-341
▁දේ	-342
▁පසු	-343
මණ	-344
ගල	-345
ශ්	-346
ුවේ	-347
▁ජී	-348
▁ක්	-349
▁මට	-350
තුරු	-351
▁කියලා	-352
▁සම්බන්ධ	-353
▁සිදු	-354
නයේ	-355
ත්තේ	-356
ලේ	-357
ධාර	-358
▁පිළිබඳ	-359
▁දෙන	-360
ස්ස	-361
▁ඊ	-362
▁මහතා	-363
ොර	-364
▁ප්‍රති	-365
ත්‍ය	-366
▁අර	-367
▁කොට	-368
න්නෙ	-369
▁නා	-370
නවා	-371
න්ගේ	-372
ාවක්	-373
▁වඩා	-374
▁තුළ	-375
▁අපේ	-376
රී	-377
යුතු	-378
දර	-379
මට	-380
▁වා	-381
▁පෙර	-382
න්නට	-383
▁කා	-384
▁-	-385
ුවෙන්	-386
00	-387
▁දේශ	-388
▁ශ්‍රී	-389
▁වර්	-390
▁පළ	-391
▁201	-392
වරයා	-393
ධිප	-394
▁ගෙන	-395
▁ව්‍ය	-396
▁හැකිය	-397
ගත්	-398
▁නිය	-399
මත්	-400
ශ්‍ය	-401
දුව	-402
පාල	-403
ාවට	-404
ත්වය	-405
▁නෑ	-406
▁ඇතු	-407
▁පිරි	-408
තේ	-409
කො	-410
කින්	-411
▁හොඳ	-412
▁නැති	-413
ධිපති	-414
▁ගැනීම	-415
▁එහෙ	-416
ෝජ	-417
▁පමණ	-418
රණ	-419
▁කටයුතු	-420
▁එහි	-421
▁හෙ	-422
▁ගෙ	-423
කම්	-424
▁දින	-425
සිය	-426
▁මැ	-427
ෝක	-428
ගන්න	-429
▁දක්	-430
හස්	-431
විය	-432
▁රජ	-433
ලිය	-434
▁පෙ	-435
මය	-436
▁ධ	-437
ේෂ	-438
▁හේ	-439
වත	-440
කාශ	-441
ීන්	-442
▁බි	-443
▁ලංක	-444
▁අනුව	-445
▁දා	-446
ටම	-447
ංශ	-448
at	-449
▁ගත	-450
තින්	-451
▁අනු	-452
රණය	-453
▁අත්	-454
ීම්	-455
නයක්	-456
▁භාව	-457
▁වීම	-458
ගෙ	-459
වර්	-460
ගෙන්	-461
▁පත්	-462
▁කිසි	-463
හාර	-464
ද්ගල	-465
මුත්	-466
තුර	-467
▁සමඟ	-468
මන්	-469
ච්ච	-470
නාධිපති	-471
▁ක්‍රියා	-472
ෑම	-473
▁අවස්ථ	-474
▁අම	-475
හෝ	-476
දෙන	-477
ද්ද	-478
▁බවත්	-479
ුණා	-480
ර්මා	-481
පි	-482
▁අවශ්‍ය	-483
▁අධ	-484
සක්	-485
ත්මක	-486
▁මිනි	-487
▁හිත	-488
▁දැන්	-489
▁සිටි	-490
▁වෙත	-491
හල	-492
ධාන	-493
▁බවට	-494
ුරු	-495
▁ගැනීමට	-496
▁සො	-497
er	-498
▁සිදුව	-499
▁තව	-500
▁යො	-501
▁ජනාධිපති	-502
රිය	-503
වල්	-504
▁ඩ	-505
දන	-506
ම්බ	-507
▁"	-508
▁පැමි	-509
....	-510
▁එකක්	-511
දෙ	-512
ොත්	-513
▁කළේ	-514
▁තමයි	-515
ළි	-516
▁ඔබට	-517
▁ඇම	-518
▁වැනි	-519
ුවට	-520
ට්ට	-521
ෙන්ම	-522
▁කතා	-523
▁වසර	-524
▁මගේ	-525
▁නමුත්	-526
ාර්ය	-527
වූ	-528
▁ස්ථ	-529
විත	-530
වාස	-531
▁සමාජ	-532
▁විශ්	-533
▁නී	-534
▁නව	-535
▁කියන	-536
▁තිබේ	-537
▁වාර්	-538
▁3	-539
රෝ	-540
▁ගි	-541
තන	-542
▁දෙක	-543
සුව	-544
▁මුද	-545
▁P	-546
▁යන්න	-547
in	-548
▁පව	-549
ක්ක	-550
▁බලා	-551
චාර	-552
▁කියල	-553
මන	-554
▁බු	-555
▁ඉන්න	-556
▁සිටින	-557
▁ඒක	-558
▁සමග	-559
▁ඕන	-560
▁අමා	-561
▁විශේෂ	-562
▁ප‍්‍ර	-563
▁ලෝක	-564
▁ගොඩ	-565
▁බොහෝ	-566
▁වශ	-567
▁ආය	-568
▁හරි	-569
දය	-570
ග්	-571
▁ලො	-572
හන්සේ	-573
▁A	-574
බ්	-575
▁මග	-576
▁'	-577
▁හර	-578
ංකා	-579
භා	-580
ෙන්නේ	-581
▁සඳහන්	-582
▁වශයෙන්	-583
▁ඉදිරි	-584
▁පුද්ගල	-585
ණු	-586
▁කියා	-587
ූප	-588
නයට	-589
▁උත්	-590
▁ෆ	-591
▁කී	-592
න්‍	-593
▁හිට	-594
රට	-595
on	-596
▁ඉතා	-597
▁පොලි	-598
සන්	-599
වැනි	-600
▁සේව	-601
▁පිට	-602
▁නිල	-603
▁තී	-604
▁අධ්‍ය	-605
▁,	-606
▁ප්‍රකාශ	-607
an	-608
ල්ප	-609
▁තවත්	-610
ගය	-611
▁ඔබේ	-612
▁පුළ	-613
ාය	-614
▁ලංකා	-615
▁ළ	-616
ීමේ	-617
▁ජාතික	-618
▁දිය	-619
▁නැහැ	-620
▁ගත්	-621
ar	-622
හන	-623
▁වෛ	-624
▁දේශපාල	-625
▁වන්නේ	-626
වරු	-627
ර්ශ	-628
ියක්	-629
ලය	-630
වින්	-631
ගැන	-632
▁කරමින්	-633
▁නැත	-634
▁ජනතාව	-635
▁පාල	-636
ංච	-637
▁ලිය	-638
▁රු	-639
ීත	-640
මේන්	-641
▁නිර	-642
▁මාර්	-643
▁තොර	-644
▁සියලු	-645
▁ඉහ	-646
▁ලද	-647
▁පිළි	-648
▁වෙනුවෙන්	-649
▁විද්‍ය	-650
▁අත	-651
▁අඩ	-652
ූල	-653
▁පැවැ	-654
▁ඇය	-655
කය	-656
වලට	-657
▁තා	-658
ිකා	-659
▁ආකාර	-660
ර්ථ	-661
▁ඒවා	-662
▁ඔය	-663
▁ගිය	-664
ල්ලා	-665
▁කරන්නේ	-666
ුවත්	-667
▁ව්‍යාප	-668
▁එසේ	-669
ක්ෂණ	-670
නව	-671
දුර	-672
▁කෙන	-673
ඛ්‍ය	-674
හිත	-675
▁ටික	-676
▁මහා	-677
▁වලට	-678
▁මාධ්‍ය	-679
▁නෙ	-680
▁S	-681
▁වු	-682
▁අධික	-683
▁නිර්මා	-684
ැන්	-685
▁සැල	-686
භාව	-687
ිතා	-688
▁පුළුවන්	-689
▁ජය	-690
ක්‍ෂ	-691
▁හේතුව	-692
▁ලිප	-693
ලින්	-694
ක්‍ර	-695
ටන්	-696
▁ලබ	-697
▁අඩු	-698
ාන	-699
දිය	-700
▁ලේ	-701
▁බවයි	-702
▁කරයි	-703
න්ත්‍ර	-704
ම්ප	-705
ුවක්	-706
▁වග	-707
න්‍ය	-708
හොම	-709
▁තේ	-710
▁සෙ	-711
▁ජීවිත	-712
▁“	-713
▁පාර්	-714
▁තත්	-715
▁වෙලා	-716
▁රෝග	-717
කොට	-718
▁5	-719
ුණේ	-720
ූර්	-721
▁ආරක්ෂ	-722
▁පෙන	-723
කම	-724
▁අස	-725
▁ගණ	-726
▁පැහැ	-727
▁යට	-728
▁ඉඩ	-729
ගිය	-730
▁–	-731
න්නා	-732
▁කිරීමේ	-733
▁ඇත්තේ	-734
▁කෙර	-735
▁ප්‍රශ්	-736
▁දක්වා	-737
▁සාමා	-738
ුවා	-739
▁යා	-740
වර්ධ	-741
▁නොව	-742
▁නිෂ්	-743
▁වෙන්න	-744
▁නැවත	-745
▁19	-746
▁නිද	-747
ණ්ඩා	-748
▁වෙනස්	-749
st	-750
▁.	-751
▁4	-752
▁තැන	-753
▁ක්‍රී	-754
▁පරී	-755
▁පාර	-756
රය	-757
▁ප්‍රධාන	-758
▁සම්බන්ධයෙන්	-759
▁විම	-760
▁වෙනවා	-761
▁ඉන්	-762
▁පක්ෂ	-763
▁බෙ	-764
▁නොහැ	-765
ින්ද	-766
ලට	-767
▁අමාත්‍ය	-768
ග්‍ර	-769
▁පසුව	-770
▁නිෂ්පා	-771
▁අභ	-772
▁කැම	-773
▁පැමිණ	-774
▁හම	-775
re	-776
▁සිං	-777
▁පැවස	-778
▁ඊට	-779
ීට	-780
▁මෙය	-781
▁භා	-782
▁ඉති	-783
හර	-784
▁රාජ්‍ය	-785
▁ප්	-786
▁කෙසේ	-787
ස්ත	-788
යකට	-789
▁නායක	-790
ජා	-791
▁කාර්ය	-792
පිය	-793
▁දැක්	-794
ම්භ	-795
▁දර	-796
▁කතාව	-797
ප්‍ර	-798
▁දෙයක්	-799
හිප	-800
▁අපට	-801
▁හමු	-802
▁එක්ක	-803
පක්ෂ	-804
▁දුර	-805
▁කිහිප	-806
▁පවස	-807
▁හැම	-808
▁පමණක්	-809
▁කණ්ඩා	-810
▁නිලධාර	-811
▁වර	-812
▁වහන්සේ	-813
▁0	-814
▁එහෙම	-815
▁තමා	-816
▁අයි	-817
▁පිය	-818
▁කණ්ඩාය	-819
en	-820
▁කරනවා	-821
▁රටේ	-822
▁මෙහි	-823
▁තියෙන	-824
ලී	-825
සට	-826
▁සතු	-827
▁විශාල	-828
▁පෙන්	-829
▁පිළිබඳව	-830
▁පත්ව	-831
ේද	-832
ස්සේ	-833
මැති	-834
කුණු	-835
▁ඉදිරිපත්	-836
▁කිව්	-837
ළඹ	-838
ලො	-839
▁රෝ	-840
▁මෙහෙ	-841
▁කෝ	-842
▁ඔහුගේ	-843
▁වාර්තා	-844
▁භාවිතා	-845
▁සොයා	-846
ෝධ	-847
▁වලින්	-848
▁ලි	-849
▁C	-850
▁ප්‍රමා	-851
▁ගේ	-852
තුමා	-853
▁ප්‍රදේශ	-854
▁ලංකාවේ	-855
▁මගින්	-856
▁දේශපාලන	-857
▁වෛද්‍ය	-858
▁at	-859
වීමට	-860
▁පවති	-861
▁යම්	-862
▁ඉහළ	-863
▁දිග	-864
▁M	-865
▁යැයි	-866
▁සෞ	-867
ීන	-868
▁දෙන්න	-869
▁කාර	-870
ියාව	-871
▁ඇත්ත	-872
▁ආරම්භ	-873
කරුවන්	-874
ස්ට	-875
▁අදහස්	-876
සත්	-877
රේ	-878
▁ඡ	-879
පති	-880
▁මිල	-881
දීම	-882
▁පිහි	-883
▁කලා	-884
විට	-885
▁උද	-886
▁චි	-887
මික	-888
යේදී	-889
තනය	-890
▁සංවි	-891
ධානය	-892
ුත්	-893
▁පර	-894
al	-895
සික	-896
▁කරනු	-897
▁නීති	-898
▁කරලා	-899
කයන්	-900
▁ගැට	-901
රුණ	-902
ජන	-903
සය	-904
▁තමන්	-905
▁යුතුය	-906
▁ආණ්ඩ	-907
නාව	-908
▁නග	-909
▁ලා	-910
▁ති	-911
▁තිබෙන	-912
▁තිබෙනවා	-913
▁සද	-914
මිය	-915
▁තියෙනවා	-916
▁තරග	-917
▁මූල	-918
▁නික	-919
ච්ඡ	-920
මේන්තුව	-921
▁අවස්ථාව	-922
භාග	-923
le	-924
දනය	-925
නී	-926
ණයක්	-927
▁පොලිස්	-928
▁අන්ත	-929
▁තෙ	-930
▁වැද	-931
▁මුදල්	-932
ම්ම	-933
▁හඳු	-934
හිර	-935
ර්ම	-936
▁අවුරු	-937
▁මොක	-938
▁සහිත	-939
විධ	-940
පය	-941
▁වෙනත්	-942
▁ගමන්	-943
▁සිංහල	-944
▁වගේම	-945
▁මං	-946
වෙන	-947
▁ඔයා	-948
▁වෙළ	-949
▁ලක්	-950
▁විතර	-951
▁පාර්ලි	-952
▁ඉදිර	-953
ෙයි	-954
▁වෙල	-955
නායක	-956
ුම්	-957
වාදී	-958
▁යෙ	-959
දාළ	-960
දිහ	-961
▁කාන්	-962
සුන්	-963
▁මෙන්ම	-964
▁ආහාර	-965
▁කියන්නේ	-966
වය	-967
වුරු	-968
හස	-969
or	-970
ස්තර	-971
om	-972
▁ඉන්ද	-973
ීමක්	-974
වාද	-975
▁අවසන්	-976
රාධ	-977
ලක්	-978
යකින්	-979
පො	-980
ic	-981
▁‘	-982
තය	-983
▁ඇතුළු	-984
▁සුදු	-985
පත	-986
▁විශ්වාස	-987
▁නොහැකි	-988
▁6	-989
▁පැහැදි	-990
▁ගා	-991
▁හද	-992
හුණ	-993
▁කාලය	-994
සිං	-995
ජි	-996
▁වට	-997
▁ඔවුන්ගේ	-998
▁ඉතින්	-999
▁සූ	-1000
▁නොවන	-1001
▁සැක	-1002
▁කළේය	-1003
▁වැට	-1004
බි	-1005
ස්ක	-1006
▁ගෝ	-1007
තක	-1008
▁මැති	-1009
ංචි	-1010
▁10	-1011
▁ශි	-1012
වන්න	-1013
▁පසුගිය	-1014
▁ආස	-1015
▁සට	-1016
ලෝ	-1017
▁සිටියේ	-1018
▁පවු	-1019
බු	-1020
▁එහෙත්	-1021
▁මාර්ග	-1022
▁පී	-1023
▁බෝ	-1024
▁බැල	-1025
▁ආදර	-1026
පට	-1027
බැ	-1028
▁එන	-1029
▁එකේ	-1030
▁විවිධ	-1031
▁සෞඛ්‍ය	-1032
ානය	-1033
▁තොරතුරු	-1034
▁එර	-1035
ඩිය	-1036
▁නොවේ	-1037
▁එන්න	-1038
▁රාජපක්ෂ	-1039
වන්	-1040
▁ඒත්	-1041
▁හරහා	-1042
▁ඇතුළ	-1043
දැ	-1044
න්දු	-1045
▁අනි	-1046
▁ක්‍රම	-1047
ෂණ	-1048
මාර	-1049
▁වැදගත්	-1050
▁කළා	-1051
▁බා	-1052
▁ක්‍රියාත්මක	-1053
▁පවතින	-1054
▁සුව	-1055
සල්	-1056
▁තරම්	-1057
▁:	-1058
▁කියන්න	-1059
ත්‍රි	-1060
▁සභ	-1061
▁චිත්‍ර	-1062
▁යොමු	-1063
න්ඩ	-1064
කරණය	-1065
▁T	-1066
වලින්	-1067
ශ්‍ර	-1068
▁සිර	-1069
▁අහ	-1070
▁දරුවන්	-1071
▁නොමැති	-1072
▁මේක	-1073
▁8	-1074
▁සිටිය	-1075
▁කඩ	-1076
▁ව්‍යාපාර	-1077
▁දේවල්	-1078
▁වීමට	-1079
▁බලප	-1080
▁එරෙහි	-1081
▁සමහර	-1082
ක්ති	-1083
ගො	-1084
▁අදාළ	-1085
ාර්ථ	-1086
▁අලු	-1087
ව්‍ය	-1088
▁විද	-1089
▁සාක	-1090
▁ඉල්ල	-1091
▁7	-1092
ාවෙන්	-1093
වර්ධන	-1094
▁අංශ	-1095
▁ගන්නා	-1096
▁වෙයි	-1097
▁මිනිස්	-1098
▁දරුව	-1099
▁එක්සත්	-1100
ලෙ	-1101
▁මෙසේ	-1102
▁සෑම	-1103
▁නියෝජ	-1104
ලක	-1105
▁සියල්ල	-1106
ීමෙන්	-1107
සිංහ	-1108
නට	-1109
වට	-1110
සුම්	-1111
ෘතිය	-1112
▁සිත	-1113
▁කොළඹ	-1114
▁ලබන	-1115
▁යටතේ	-1116
▁හිටපු	-1117
▁හැර	-1118
▁සම්ප	-1119
▁කෙනෙක්	-1120
ත්‍යා	-1121
▁සර	-1122
▁ආර්ථ	-1123
▁නිර්මාණය	-1124
▁සී	-1125
▁මීට	-1126
▁පුරා	-1127
▁එකට	-1128
නික	-1129
ටිය	-1130
රදි	-1131
▁බ්	-1132
▁මාස	-1133
▁ගුවන්	-1134
න්ව	-1135
කාරී	-1136
▁මෙන්	-1137
20	-1138
▁ප්ර	-1139
▁ගොස්	-1140
▁මධ්‍ය	-1141
▁පැව	-1142
▁තිබු	-1143
නෙ	-1144
මෙන්	-1145
කළ	-1146
▁ආර්ථික	-1147
▁අති	-1148
▁ග්‍ර	-1149
ෙකුට	-1150
▁අවසා	-1151
▁හිමි	-1152
▁විනා	-1153
▁පැහැදිලි	-1154
▁පුර	-1155
it	-1156
▁තීරණය	-1157
ාවන්	-1158
▁ගෙදර	-1159
▁අග	-1160
▁දැක	-1161
▁දෙප	-1162
ගාර	-1163
රැ	-1164
▁එයා	-1165
▁විදු	-1166
▁ලොකු	-1167
▁තබා	-1168
ou	-1169
නත්	-1170
▁නිදහස්	-1171
▁කරුණු	-1172
▁පෝ	-1173
වද	-1174
කිර	-1175
දුරටත්	-1176
ක්ෂණය	-1177
පුර	-1178
▁බර	-1179
▁වුණා	-1180
▁අධ්‍යාප	-1181
කරු	-1182
▁ඉවත්	-1183
මාන	-1184
▁යාම	-1185
▁යි	-1186
▁සාකච්ඡ	-1187
හොත්	-1188
කරන	-1189
▁දහ	-1190
▁ශා	-1191
සී	-1192
▁පටන්	-1193
වෘ	-1194
▁ෂ	-1195
▁බලන්න	-1196
▁තහ	-1197
▁මණ්ඩ	-1198
ක්‍රම	-1199
▁කොහොම	-1200
▁අපිට	-1201
සැ	-1202
▁පැවැත්ව	-1203
▁පවා	-1204
▁අවුරුදු	-1205
යෙක්	-1206
▁පරිදි	-1207
▁විදිහ	-1208
රෝධ	-1209
දින	-1210
▁ඉස්	-1211
ටුව	-1212
සාහ	-1213
ෙනි	-1214
දෙස්	-1215
ෝද	-1216
කරණ	-1217
▁පළා	-1218
▁වර්ග	-1219
▁හු	-1220
වෙයි	-1221
▁වුව	-1222
▁බැරි	-1223
නැ	-1224
▁සිද්ධ	-1225
▁ඇවි	-1226
▁වනු	-1227
▁උත්සාහ	-1228
▁පහසු	-1229
▁කාලයක්	-1230
▁මන්ත්‍ර	-1231
▁තත්ත්ව	-1232
▁පද	-1233
▁තෝ	-1234
▁පළමු	-1235
▁අන්තර්	-1236
es	-1237
▁මහින්ද	-1238
▁රුපිය	-1239
▁තුල	-1240
▁එකතු	-1241
ත්න	-1242
ෙන්න	-1243
▁යනු	-1244
▁පැමිණි	-1245
▁මුහුණ	-1246
මැ	-1247
බල	-1248
වරුන්	-1249
▁N	-1250
▁සාමාන්‍ය	-1251
▁අපගේ	-1252
ජ්	-1253
▁ඇතැයි	-1254
ල්ලි	-1255
▁භාවිත	-1256
▁ගුණ	-1257
▁බුද්ධ	-1258
▁එත	-1259
▁කාන්තාව	-1260
ෂ්ඨ	-1261
▁ඉක්	-1262
▁වූයේ	-1263
ද්දී	-1264
▁පියවර	-1265
නක්	-1266
මයි	-1267
▁බවද	-1268
▁තිබූ	-1269
▁D	-1270
▁අන්	-1271
▁/	-1272
පොර	-1273
රුම්	-1274
මුණ	-1275
හින්	-1276
▁c	-1277
▁යෝජ	-1278
▁සංචාර	-1279
▁කරගෙන	-1280
▁ලංකාව	-1281
න්ද්‍ර	-1282
▁මිය	-1283
ගි	-1284
▁B	-1285
ස්ට්	-1286
▁යොදා	-1287
▁L	-1288
▁බ්‍ර	-1289
▁මෝ	-1290
▁වය	-1291
▁ක්‍රීඩ	-1292
▁විස්තර	-1293
▁රුපියල්	-1294
▁9	-1295
▁මන්ත්‍රී	-1296
ච්චි	-1297
▁කිරි	-1298
ම්මා	-1299
▁මුල්	-1300
ෆ්	-1301
▁සිරි	-1302
▁විශ්ව	-1303
ූර්ණ	-1304
▁කේ	-1305
ෂණය	-1306
ලියන	-1307
▁මඟ	-1308
▁දැඩි	-1309
▁t	-1310
යන්ට	-1311
▁එල්ල	-1312
▁සදහා	-1313
▁තමන්ගේ	-1314
ෙක	-1315
▁විරෝධ	-1316
▁නේද	-1317
▁බලාපොර	-1318
▁එවැනි	-1319
▁සේවා	-1320
▁දෙදෙන	-1321
▁දවස	-1322
ඵල	-1323
▁වසරේ	-1324
▁යහ	-1325
▁ඔහුට	-1326
ියානු	-1327
▁සක	-1328
ියෙන්	-1329
▁අමතර	-1330
▁තිබුණ	-1331
්‍රව්‍ය	-1332
▁උස	-1333
▁s	-1334
▁චිත්‍රපට	-1335
▁රි	-1336
▁සහභාග	-1337
වාහ	-1338
ක්ෂා	-1339
▁පවත්	-1340
▁R	-1341
▁p	-1342
ප්ප	-1343
▁කෑ	-1344
කල්ප	-1345
කී	-1346
▁සීම	-1347
▁දීම	-1348
▁රූප	-1349
▁පෙන්වා	-1350
කාල	-1351
ාවි	-1352
▁එකම	-1353
▁පාලනය	-1354
ටර්	-1355
▁ලේකම්	-1356
▁ගියා	-1357
▁කිසිදු	-1358
▁මැතිවර	-1359
▁තියෙන්නේ	-1360
▁විදියට	-1361
▁අයට	-1362
▁ඉල්ලා	-1363
▁වෙන්නේ	-1364
▁හේතුවෙන්	-1365
▁G	-1366
▁ස්වා	-1367
ග්‍රහ	-1368
▁එරෙහිව	-1369
හැර	-1370
▁ඝ	-1371
▁දෙම	-1372
▁ලැබෙන	-1373
▁රථ	-1374
▁වඩාත්	-1375
▁වච	-1376
▁F	-1377
වයි	-1378
වක්	-1379
▁කුඩා	-1380
000	-1381
▁ක්‍රීඩා	-1382
▁මන	-1383
තියක්	-1384
යෙකු	-1385
▁දැනට	-1386
▁පන්	-1387
ණා	-1388
▁වෙන්	-1389
▁පිරිසක්	-1390
කෝ	-1391
ගා	-1392
▁පර්	-1393
▁රැක	-1394
චාර්ය	-1395
▁බැවින්	-1396
▁භාර	-1397
තී	-1398
යන	-1399
▁දැම	-1400
▁තරුණ	-1401
▁කලින්	-1402
▁?	-1403
▁ගහ	-1404
ay	-1405
▁වෘ	-1406
▁වස	-1407
▁12	-1408
ේම	-1409
යන්තර	-1410
▁පුල	-1411
වාදය	-1412
▁විදේශ	-1413
▁අර්	-1414
ෙත්	-1415
යෝ	-1416
▁ඈ	-1417
▁වෙබ්	-1418
ටා	-1419
▁බ්ලො	-1420
▁උපා	-1421
ශී	-1422
▁එපා	-1423
ed	-1424
කුත්	-1425
▁චරි	-1426
▁මෙරට	-1427
▁I	-1428
▁මාර	-1429
වම	-1430
▁බෑ	-1431
▁දුන්	-1432
▁එළ	-1433
ලෙස	-1434
ත්‍රී	-1435
▁පේ	-1436
▁උඹ	-1437
නිය	-1438
ිකාව	-1439
▁විද්‍යා	-1440
▁දෙකක්	-1441
ඳි	-1442
▁හමුදා	-1443
▁මතක	-1444
▁පූ	-1445
ත්නම්	-1446
ුර	-1447
තරම්	-1448
කයා	-1449
▁නිකුත්	-1450
▁අනා	-1451
දාය	-1452
ුවර	-1453
ක්ත	-1454
ාලය	-1455
▁ගු	-1456
▁කිහිපයක්	-1457
▁නගර	-1458
මිත	-1459
▁රජය	-1460
▁භූ	-1461
▁දුරක	-1462
▁ප්‍රා	-1463
ථා	-1464
පැ	-1465
▁ව්‍යව	-1466
▁කිරීමෙන්	-1467
ම්බර්	-1468
▁සමාගම	-1469
▁පල	-1470
කයින්	-1471
ent	-1472
ත්‍යන්තර	-1473
▁සුදුසු	-1474
ගම්	-1475
▁නොද	-1476
ෙල්	-1477
▁PM	-1478
ෙම	-1479
▁නිර්	-1480
වීමේ	-1481
න්දර	-1482
ෙන්නෙ	-1483
▁බහු	-1484
ගැනීම	-1485
▁ඡන්ද	-1486
▁දූ	-1487
ොල	-1488
ෂ්‍ය	-1489
ගැනීමට	-1490
▁ජාත්‍යන්තර	-1491
ලූ	-1492
▁ගත්ත	-1493
▁දෙනා	-1494
▁විදිහට	-1495
▁ඉඳ	-1496
පද	-1497
▁දන්න	-1498
ve	-1499
▁ජනාධිපතිවරයා	-1500
▁සල	-1501
ස්ථා	-1502
▁වාර්තාව	-1503
▁බුදු	-1504
තියේ	-1505
▁H	-1506
▁කුමක්	-1507
න්තර	-1508
▁දෙපාර්	-1509
▁හැකියාව	-1510
තම	-1511
▁ප්‍රශ්න	-1512
▁කල්	-1513
පිට	-1514
▁යුතුයි	-1515
▁ලකුණු	-1516
▁11	-1517
ෂා	-1518
▁සින	-1519
යෝග	-1520
ංගුවට	-1521
▁වර්ධ	-1522
▁නාම	-1523
නිල්	-1524
▁තත්ත්වය	-1525
▁වැඩසට	-1526
▁(1	-1527
▁සිහි	-1528
අඩ	-1529
▁හමුව	-1530
▁උත්ස	-1531
▁සාර්ථ	-1532
▁ගීත	-1533
▁ඇයි	-1534
▁පරීක්ෂණ	-1535
ණිය	-1536
▁වෙළඳ	-1537
සල	-1538
▁හේතු	-1539
▁කෘ	-1540
▁බලය	-1541
▁නම	-1542
is	-1543
ඨා	-1544
ත්තා	-1545
▁පද්ධ	-1546
▁තො	-1547
▁කරන්නට	-1548
▁පුවත්	-1549
ing	-1550
.”	-1551
▁රජයේ	-1552
▁උඩ	-1553
▁බස්	-1554
▁ඇතැ	-1555
▁කැප	-1556
ස්තු	-1557
▁ටිකක්	-1558
▁සාර්ථක	-1559
ුම	-1560
ජය	-1561
▁හැක	-1562
මාර්	-1563
▁ගොඩක්	-1564
▁පැවති	-1565
ොත්තු	-1566
▁පැත්ත	-1567
am	-1568
▁පෙළ	-1569
ro	-1570
▁‍	-1571
▁මාල	-1572
දානම්	-1573
බැයි	-1574
▁පහත	-1575
ion	-1576
▁පරිසර	-1577
නිමින්	-1578
▁ඔබගේ	-1579
▁සෝ	-1580
▁පවත්වා	-1581
▁මිනිස්සු	-1582
▁කොමි	-1583
දාන	-1584
▁දුම්	-1585
▁එහිදී	-1586
▁විනාශ	-1587
▁සැබ	-1588
▁ඊයේ	-1589
▁සංඛ්‍ය	-1590
මනා	-1591
මේන්තු	-1592
▁අලුත්	-1593
▁පොඩි	-1594
▁පිර	-1595
▁අසා	-1596
▁පාර්ලිමේන්තුව	-1597
▁පහර	-1598
▁දිස්	-1599
ිකට්	-1600
▁බේ	-1601
තුරුව	-1602
▁අමු	-1603
▁තෝරා	-1604
නයෙන්	-1605
▁මෙවැනි	-1606
▁ක්ෂ	-1607
වේද	-1608
▁එදා	-1609
▁පොදු	-1610
ඩියෝ	-1611
▁මොහො	-1612
▁ඔවුන්ට	-1613
▁කම්	-1614
▁ඇමර	-1615
▁මොකද	-1616
ජික	-1617
▁වුණ	-1618
▁නිවැ	-1619
▁15	-1620
ර්ය	-1621
▁හිමික	-1622
▁අපරාධ	-1623
▁පුරු	-1624
දැක	-1625
හේ	-1626
ගමැති	-1627
තුන්	-1628
ාපති	-1629
දර්ශ	-1630
▁ගැනීමේ	-1631
▁ගනු	-1632
▁ඕනෑම	-1633
▁අත්අඩ	-1634
▁කැමති	-1635
තාවය	-1636
▁අමතරව	-1637
▁ස්ව	-1638
▁ආණ්ඩුව	-1639
▁බ්ලොග්	-1640
▁ගිහින්	-1641
▁යයි	-1642
ජී	-1643
ac	-1644
il	-1645
▁කරගන්න	-1646
▁රස	-1647
▁ආප	-1648
යකු	-1649
▁අගමැති	-1650
සිර	-1651
▁නිෂ්පාදන	-1652
▁ආයතන	-1653
▁තත්ව	-1654
▁ඉතිහා	-1655
▁ලැබේ	-1656
තක්	-1657
▁ආකාරය	-1658
▁උපදෙස්	-1659
ළුව	-1660
ංගල	-1661
ාරි	-1662
▁පස්සේ	-1663
▁හඳුනා	-1664
සන	-1665
▁රැස්	-1666
▁පෞ	-1667
මත	-1668
▁පරා	-1669
හ්	-1670
වීම්	-1671
බෝධ	-1672
▁තැබ	-1673
▁මූලික	-1674
▁200	-1675
තූ	-1676
ර්මාන්ත	-1677
ෂ්ට	-1678
ලිම්	-1679
▁දරුවා	-1680
▁කොටස්	-1681
▁නොකර	-1682
සක	-1683
▁අත්අඩංගුවට	-1684
▁සභාපති	-1685
▁දව	-1686
ෑම්	-1687
▁දෙපාර්ත	-1688
▁අනාගත	-1689
හල්	-1690
▁කාර්	-1691
▁හොද	-1692
▁තැ	-1693
ාවත්	-1694
▁සාමාජික	-1695
▁පාසල්	-1696
ශ්ච	-1697
▁පවසයි	-1698
▁පැවසීය	-1699
▁මුළු	-1700
▁නු	-1701
▁ප්‍රහාර	-1702
▁ඇමති	-1703
ජිත්	-1704
▁හතර	-1705
▁සේවය	-1706
▁ක්‍රියාව	-1707
▁කරුණ	-1708
▁සැම	-1709
▁ආගම	-1710
▁විෂ	-1711
සින්	-1712
▁හමුද	-1713
▁අහි	-1714
▁හොඳම	-1715
▁වටි	-1716
▁දීමට	-1717
▁ළඟ	-1718
▁ක්‍රිකට්	-1719
දැයි	-1720
▁මානව	-1721
▁අයත්	-1722
ොන්	-1723
▁දර්ශ	-1724
▁ආසා	-1725
ැත්ත	-1726
ැක්	-1727
▁අත්දැක	-1728
▁පන	-1729
▁වෙතත්	-1730
ද්දි	-1731
▁තැන්	-1732
▁ජීවිතය	-1733
▁ක‍්‍ර	-1734
ාලයේ	-1735
▁ගත්තේ	-1736
▁මෙහිදී	-1737
ක්තිය	-1738
▁ගණන	-1739
▁දෙවිය	-1740
ලික	-1741
et	-1742
▁නැතුව	-1743
▁කරපු	-1744
▁බලාපොරොත්තු	-1745
▁හැබැයි	-1746
▁වගක	-1747
▁හමුවේ	-1748
▁නීතිය	-1749
ෞද්ධ	-1750
▁අනෙක්	-1751
▁18	-1752
▁AM	-1753
ad	-1754
▁ගියේ	-1755
සූ	-1756
▁පුලුවන්	-1757
ag	-1758
දේ	-1759
ගොඩ	-1760
යාගේ	-1761
he	-1762
▁ඉගෙන	-1763
ත්‍රා	-1764
▁දායක	-1765
▁ධර්ම	-1766
ඳුම්	-1767
▁ඇතැම්	-1768
as	-1769
▁තවමත්	-1770
▁කිසිම	-1771
▁මැද	-1772
▁අවධානය	-1773
හුණු	-1774
▁ටෙ	-1775
▁කර්මාන්ත	-1776
▁ගත්තා	-1777
▁පළාත්	-1778
ස්සෙ	-1779
▁යුද්ධ	-1780
▁E	-1781
▁ලිපි	-1782
▁සංවිධානය	-1783
▁ගොඩනැ	-1784
මී	-1785
ඩුව	-1786
▁ඉටු	-1787
ෝදනා	-1788
▁අප්‍ර	-1789
▁රෙ	-1790
▁විශේෂයෙන්	-1791
▁නියමිත	-1792
වෘත	-1793
ලයේ	-1794
ංගික	-1795
▁ඇතුළත්	-1796
▁වටිනා	-1797
▁ශරී	-1798
ඹු	-1799
▁සතුට	-1800
ත්‍යාංශ	-1801
▁විවාහ	-1802
▁ප්‍රමාණය	-1803
▁අයු	-1804
ශා	-1805
id	-1806
▁...	-1807
සේන	-1808
▁කෙරෙහි	-1809
▁මාව	-1810
ෝන්	-1811
▁රො	-1812
▁පාර්ලිමේන්තු	-1813
▁ජීවත්	-1814
▁ඝා	-1815
▁තේරුම්	-1816
පේ	-1817
ංගු	-1818
▁J	-1819
▁දෙපාර්තමේන්තුව	-1820
▁සර්	-1821
▁ත්‍ර	-1822
▁අමාත්‍යාංශ	-1823
▁වෘත්ත	-1824
▁ආරක්ෂක	-1825
තියි	-1826
්බ	-1827
▁උදා	-1828
▁ඉදිරියේ	-1829
▁බෞද්ධ	-1830
න්වා	-1831
යන්ගේ	-1832
▁මුස්	-1833
▁චෝදනා	-1834
ට්‍ය	-1835
▁ලොව	-1836
▁කාම	-1837
▁යැ	-1838
▁කොරෝ	-1839
▁ලදී	-1840
▁මල්	-1841
▁වැළ	-1842
▁විනි	-1843
▁විවෘත	-1844
▁සංග	-1845
දුරු	-1846
▁නිලධාරීන්	-1847
▁ඇද	-1848
▁මිලියන	-1849
▁අංක	-1850
ච්චර	-1851
ද්ගලික	-1852
▁අවස්ථාවේ	-1853
▁හට	-1854
▁සත්	-1855
▁කණ්ඩායම	-1856
▁ලිපිය	-1857
▁විරු	-1858
▁W	-1859
විඩ්	-1860
▁මන්ද	-1861
දුම්	-1862
ලිබ	-1863
▁දමා	-1864
▁ගෑ	-1865
ost	-1866
සීම	-1867
ෝගික	-1868
▁උන්	-1869
භාවය	-1870
▁ගමන	-1871
▁පින්	-1872
▁O	-1873
▁ඩි	-1874
▁බෙදා	-1875
▁එබැ	-1876
▁අමතක	-1877
ාවල	-1878
▁වේද	-1879
▁ස්ථා	-1880
▁ණය	-1881
▁මුහු	-1882
▁අවබෝධ	-1883
▁පැන	-1884
▁එයට	-1885
කදී	-1886
▁යළි	-1887
▁සහතික	-1888
භය	-1889
▁ලක්ෂ	-1890
▁මී	-1891
ිකානු	-1892
▁නිර්මාණ	-1893
▁ඉදිරියට	-1894
▁සමු	-1895
▁දුරකථ	-1896
දුම	-1897
▁සකස්	-1898
ගැ	-1899
▁සෑ	-1900
සයි	-1901
කේ	-1902
ලත්	-1903
ධි	-1904
ලව	-1905
▁උනා	-1906
ණ්ඩු	-1907
▁මූ	-1908
▁එසේම	-1909
▁සංස්ක	-1910
▁නිවස	-1911
▁උසස්	-1912
වුම්	-1913
ිකර	-1914
▁දකි	-1915
un	-1916
▁ඉන්නවා	-1917
සෙ	-1918
▁මහජන	-1919
▁b	-1920
තුම්	-1921
▁සිල්	-1922
බර්	-1923
▁වර්ධනය	-1924
▁තිර	-1925
▁ඇගේ	-1926
▁පෞද්ගලික	-1927
▁තහවුරු	-1928
▁ස්ථාන	-1929
▁ලෝකයේ	-1930
▁නියම	-1931
▁මතු	-1932
▁ප්‍රදේශයේ	-1933
▁හැඟ	-1934
▁ලියා	-1935
න්වහන්සේ	-1936
▁පියා	-1937
▁රනිල්	-1938
▁අධ්‍යක්ෂ	-1939
▁විහාර	-1940
සිද්ධ	-1941
▁කියන්නෙ	-1942
▁වත්	-1943
▁අවම	-1944
▁කොරෝනා	-1945
▁චී	-1946
රො	-1947
▁කුමාර	-1948
දීමට	-1949
▁තර්	-1950
▁පාරි	-1951
▁රටවල්	-1952
ින්ම	-1953
▁සංගම	-1954
▁ඉල	-1955
▁බී	-1956
රුම	-1957
▁නර	-1958
▁තවදුරටත්	-1959
▁ජීව	-1960
▁පර්යේ	-1961
▁මාන	-1962
ියන්	-1963
▁නිවැරදි	-1964
▁ඇර	-1965
▁නෙවෙයි	-1966
වේදී	-1967
සම	-1968
▁වළ	-1969
▁තමන්ට	-1970
▁පෙනී	-1971
▁චරිත	-1972
ාරූප	-1973
▁අනතුරුව	-1974
▁තිබි	-1975
▁මෛ	-1976
▁වෙනුවට	-1977
නන්ද	-1978
ෙකුත්	-1979
▁ජල	-1980
හෙන	-1981
▁සංවර්ධන	-1982
වාරි	-1983
▁වීඩියෝ	-1984
▁මොන	-1985
▁නැත්නම්	-1986
බර	-1987
▁ට්‍ර	-1988
▁ලෙ	-1989
▁භි	-1990
▁නේ	-1991
▁කලේ	-1992
ප්‍රිය	-1993
▁පිරිස	-1994
▁යනවා	-1995
▁ඒකා	-1996
▁යන්නේ	-1997
▁දෙමළ	-1998
මුඛ	-1999
ලාව	-2000
▁දෙස	-2001
▁මස	-2002
ල්ලක්	-2003
▁මෙත	-2004
▁)	-2005
දීය	-2006
▁සම්පූර්ණ	-2007
▁දක	-2008
▁මිලදී	-2009
▁සියලුම	-2010
මුව	-2011
▁පෙන්න	-2012
▁සන්	-2013
දිත	-2014
▁තොරව	-2015
යයි	-2016
ජු	-2017
පෙ	-2018
ment	-2019
▁එමෙන්ම	-2020
▁දො	-2021
ගමනය	-2022
vi	-2023
ේත්‍ර	-2024
▁අම්මා	-2025
ගුණ	-2026
ක්ස්	-2027
▁තුන	-2028
ප්පු	-2029
ධික	-2030
▁හැට	-2031
ol	-2032
▁එබැවින්	-2033
▁කරල	-2034
▁කමි	-2035
ගන්නා	-2036
ber	-2037
▁ඇමැති	-2038
▁විරුද්ධ	-2039
▁වෙලාව	-2040
▁පිණි	-2041
▁දිස්ත්‍රි	-2042
▁පස්	-2043
▁ස්ථානය	-2044
යුම්	-2045
▁තිබුණේ	-2046
▁කොහොමද	-2047
යාට	-2048
යෝජ	-2049
▁මරණ	-2050
▁පවසා	-2051
▁ලාංක	-2052
▁දකුණු	-2053
ත්ති	-2054
▁ඩොල	-2055
▁මිනිසුන්	-2056
▁දුන්නේ	-2057
▁හරියට	-2058
▁හොඳින්	-2059
▁තිබුණා	-2060
▁ලංකාවට	-2061
▁වෙමින්	-2062
▁මනු	-2063
▁ඇඟ	-2064
▁දැනුම්	-2065
▁නාට්‍ය	-2066
▁ආරක්ෂා	-2067
▁ජනතාවට	-2068
▁නිසි	-2069
▁2015	-2070
▁දෙනෙකු	-2071
කූල	-2072
▁කියනවා	-2073
▁ලැබූ	-2074
▁පහළ	-2075
▁නිව	-2076
ec	-2077
▁අරමුණ	-2078
▁හිර	-2079
▁අධිකරණය	-2080
▁දුම්රිය	-2081
▁සටහන්	-2082
▁මුස්ලිම්	-2083
▁වේග	-2084
තල	-2085
ඥා	-2086
▁ආයතනය	-2087
▁විමර්ශ	-2088
දුන්	-2089
▁කාලයේ	-2090
▁ඡාය	-2091
▁පම	-2092
▁සූදානම්	-2093
▁සත්‍ය	-2094
▁අපේක්ෂ	-2095
▁ගල්	-2096
▁වුනා	-2097
ට්ටු	-2098
▁ලිංගික	-2099
▁බට	-2100
▁වීර	-2101
▁වර්ත	-2102
ගී	-2103
▁ගැල	-2104
යික	-2105
විද්‍ය	-2106
ගණ	-2107
▁අතුරු	-2108
▁හඬ	-2109
▁සාධ	-2110
▁අනාව	-2111
▁25	-2112
ේස්	-2113
▁මත්	-2114
▁පොලිසිය	-2115
▁ශක්ති	-2116
▁වික	-2117
▁තීරණ	-2118
▁තෙල්	-2119
▁තුළින්	-2120
ල්ලේ	-2121
▁සංවර්ධ	-2122
රුණු	-2123
▁මැතිවරණ	-2124
▁m	-2125
el	-2126
පෙන	-2127
▁30	-2128
දිංචි	-2129
▁හෙළි	-2130
▁වෛර	-2131
▁දිනය	-2132
ක්ද	-2133
▁අධ්‍යාපන	-2134
වමින්	-2135
▁ආදී	-2136
▁සමාන	-2137
▁වියද	-2138
ළඟ	-2139
ෑන්	-2140
▁ඉහත	-2141
▁පීඩ	-2142
▁ප්‍රතිකාර	-2143
▁කිව්වා	-2144
▁වික්‍රම	-2145
▁(2	-2146
ග්‍රා	-2147
‍්‍රී	-2148
▁නැතිව	-2149
▁13	-2150
▁වැරදි	-2151
▁14	-2152
ජනය	-2153
▁වරද	-2154
ගින්	-2155
▁d	-2156
▁මානසික	-2157
රයේ	-2158
▁කවුරු	-2159
▁බොහොම	-2160
මිනි	-2161
▁සාකච්ඡා	-2162
▁අල	-2163
ෂික	-2164
▁රංග	-2165
වරණය	-2166
▁රැගෙන	-2167
දායක	-2168
▁සංවිධා	-2169
▁ආණ්ඩු	-2170
),	-2171
▁සැලසුම්	-2172
▁ඉතිරි	-2173
කඩ	-2174
▁කළු	-2175
▁ආක	-2176
තාවක්	-2177
▁සෙන	-2178
▁සුර	-2179
▁දියුණු	-2180
▁ලස්ස	-2181
▁රටට	-2182
▁මඟින්	-2183
▁තුන්	-2184
▁විජ	-2185
තට	-2186
▁ඇවිත්	-2187
ටුප	-2188
▁අමාත්‍යවරයා	-2189
▁හිමිය	-2190
▁යෝජනා	-2191
▁වැඩක්	-2192
▁මේවා	-2193
▁ඔවු	-2194
▁වුවත්	-2195
ගු	-2196
▁තිබිය	-2197
▁ආසන්න	-2198
▁අවසානයේ	-2199
▁බිහි	-2200
▁ආකාරයට	-2201
▁දෙදෙනා	-2202
▁16	-2203
▁බදු	-2204
▁ඇඳ	-2205
▁මෙන්න	-2206
▁තියෙන්නෙ	-2207
▁විදුලි	-2208
▁කට්ට	-2209
▁ගෞ	-2210
වතී	-2211
▁වුණේ	-2212
▁අල්ල	-2213
▁ඩොලර්	-2214
▁පොත්	-2215
▁සුළු	-2216
▁සිදුවන	-2217
▁රේ	-2218
▁සමී	-2219
▁ගනිමින්	-2220
▁ඡායාරූප	-2221
▁මුල	-2222
▁සැබෑ	-2223
කල	-2224
▁වුවද	-2225
▁අතින්	-2226
▁පිණිස	-2227
▁යුත්තේ	-2228
ධාරණය	-2229
▁තිබ්බ	-2230
▁ක්‍රමය	-2231
ඤ්	-2232
▁හම්බ	-2233
▁පට	-2234
තෘ	-2235
▁කරග	-2236
▁දෑ	-2237
ෂධ	-2238
▁වැඩිදුරටත්	-2239
▁බැංක	-2240
▁ඇත්තටම	-2241
▁යාමට	-2242
රුන්	-2243
▁ඛ	-2244
,000	-2245
▁ශිල්ප	-2246
▁වැනිදා	-2247
කරුව	-2248
▁තන	-2249
▁ඌ	-2250
▁බැඳ	-2251
▁අර්ථ	-2252
▁ගන්නේ	-2253
▁2012	-2254
▁වහා	-2255
ංගම	-2256
▁සැප	-2257
▁සිටියේය	-2258
▁V	-2259
▁හැටි	-2260
▁ඔක්	-2261
▁තත්වය	-2262
ex	-2263
▁මට්ට	-2264
▁පහසුකම්	-2265
▁පොලී	-2266
▁රණ	-2267
▁කීප	-2268
▁සහෝ	-2269
▁සමත්	-2270
▁කීවේ	-2271
▁ඉන්නේ	-2272
▁කවු	-2273
▁කරා	-2274
ත්වයෙන්	-2275
ot	-2276
▁මහත්ම	-2277
.....	-2278
▁කැබ	-2279
▁මුලින්	-2280
▁යුද	-2281
▁ඇස්	-2282
ද්‍රව්‍ය	-2283
ul	-2284
සං	-2285
▁ඔස්සේ	-2286
▁මහත්ත	-2287
▁කිව	-2288
▁නං	-2289
▁ප්‍රශ්නය	-2290
▁ආදරය	-2291
ෝෂ	-2292
▁එතකොට	-2293
▁මාර්ගය	-2294
▁හැසිර	-2295
ොට	-2296
▁පොහො	-2297
▁හිටිය	-2298
▁අදහස	-2299
▁නිෂ්පාද	-2300
▁[	-2301
▁බුද්ධි	-2302
▁ජනතා	-2303
▁හැකියි	-2304
ිලි	-2305
▁අඩවිය	-2306
▁පෙරේ	-2307
▁පැය	-2308
▁ක්ෂේත්‍ර	-2309
▁අවස්ථා	-2310
හට	-2311
art	-2312
▁පුංචි	-2313
ap	-2314
▁නියෝග	-2315
හසු	-2316
▁සංගීත	-2317
em	-2318
▁මතක්	-2319
▁කොල්ල	-2320
▁ඉස්සර	-2321
▁යුතුව	-2322
▁අස්	-2323
▁දවස්	-2324
▁සහභාගී	-2325
▁වර්ෂ	-2326
▁පැති	-2327
▁එනම්	-2328
ඳවා	-2329
වනු	-2330
▁යනුවෙන්	-2331
▁දේශීය	-2332
යත්	-2333
ියෝග	-2334
▁නිතර	-2335
▁විතරක්	-2336
▁අවු	-2337
ෘති	-2338
මෙ	-2339
▁කිරීම්	-2340
▁සිල්වා	-2341
▁නිෂ්පාදනය	-2342
▁අදාල	-2343
▁පිහිට	-2344
▁පිහිටි	-2345
ජාත	-2346
▁විතරයි	-2347
ෙමි	-2348
නාගාර	-2349
පී	-2350
▁තරඟ	-2351
▁නිලධාරී	-2352
▁ලේඛ	-2353
ch	-2354
▁ස්ට	-2355
▁සමස්ත	-2356
▁හදි	-2357
▁පිලිබ	-2358
මෙයි	-2359
ri	-2360
▁කොවිඩ්	-2361
ත්තු	-2362
▁අනෙකුත්	-2363
▁උදව්	-2364
▁සාක්ෂ	-2365
▁එයින්	-2366
▁ඖ	-2367
▁වචන	-2368
▁ජනප්‍රිය	-2369
ණන්	-2370
▁කළමනා	-2371
▁තියන	-2372
▁සන්න	-2373
▁දෙනෙක්	-2374
▁මන්	-2375
දාස	-2376
▁මහතාගේ	-2377
▁ගුරු	-2378
වන්නේ	-2379
▁අම්ම	-2380
▁ප්‍රේම	-2381
පොළ	-2382
▁සමාජය	-2383
▁දත්ත	-2384
▁ඕනේ	-2385
නෝ	-2386
▁අහිමි	-2387
▁වැඩසටහන	-2388
▁f	-2389
▁|	-2390
▁වතුර	-2391
▁කෙටි	-2392
ස්තුව	-2393
▁ඉක්මන	-2394
▁විවේ	-2395
▁අන්ති	-2396
▁ගෝඨා	-2397
▁සහයෝග	-2398
▁බැහැ	-2399
▁පොළ	-2400
-1	-2401
▁වනවිට	-2402
▁වැඩේ	-2403
▁සිරිසේන	-2404
▁සටන්	-2405
තියට	-2406
▁භාණ්ඩ	-2407
තැ	-2408
▁අයිති	-2409
ාරු	-2410
▁ඖෂධ	-2411
මාව	-2412
▁යුරෝ	-2413
▁සභාව	-2414
ලුව	-2415
▁පදනම්	-2416
▁ජයග්‍රහ	-2417
▁පැවැති	-2418
විර	-2419
▁සහභාගි	-2420
21	-2421
▁ද්‍රව්‍ය	-2422
▁on	-2423
▁කෙරෙන	-2424
▁හිමිකම්	-2425
▁පමණි	-2426
▁බවය	-2427
▁!	-2428
පිළි	-2429
විනි	-2430
▁ඉතිං	-2431
▁කෙසේද	-2432
▁බරපත	-2433
▁කාලේ	-2434
▁දක්ෂ	-2435
▁කිසිව	-2436
බද්ධ	-2437
▁ගිවි	-2438
▁දිගටම	-2439
▁ආයත	-2440
▁බටහිර	-2441
ිකිර	-2442
ලන්ත	-2443
:1	-2444
▁පාඨ	-2445
▁හැටියට	-2446
▁ඉවර	-2447
▁රිය	-2448
▁ජි	-2449
බී	-2450
▁17	-2451
▁ඉංග	-2452
▁ගෙන්	-2453
▁බිඳ	-2454
▁සහෝදර	-2455
යකි	-2456
ශේෂ	-2457
▁විපක්ෂ	-2458
▁පාරිභ	-2459
▁පස්සෙ	-2460
ස්ථානය	-2461
▁තියා	-2462
වේශ	-2463
▁මහත්	-2464
▁ඉන්දිය	-2465
▁කෙල්ල	-2466
▁පැර	-2467
▁රන්	-2468
▁හෙවත්	-2469
▁ශ්‍රේ	-2470
▁වෙන්නෙ	-2471
▁දෙවන	-2472
▁දුක්	-2473
▁අභියෝග	-2474
▁නිවාස	-2475
▁කොටස	-2476
්‍යා	-2477
▁අනිත්	-2478
ගර	-2479
රාල්	-2480
හුව	-2481
▁අතට	-2482
ූහ	-2483
▁නැද්ද	-2484
omment	-2485
▁ව්‍යා	-2486
▁ජලය	-2487
මාර්ග	-2488
▁නෙමෙයි	-2489
▁ඇයට	-2490
මම	-2491
▁කල්ප	-2492
▁*	-2493
ous	-2494
▁තද	-2495
▁තනි	-2496
▁»	-2497
).	-2498
▁එවිට	-2499
▁අනිවා	-2500
▁පුහුණු	-2501
▁බන්ධ	-2502
නො	-2503
▁කඳු	-2504
and	-2505
▁ආවේ	-2506
▁දිගු	-2507
▁මෙලෙස	-2508
▁2014	-2509
ඞ්	-2510
▁සභා	-2511
▁අන්තර්ජ	-2512
ස්ට්‍ර	-2513
යින්ට	-2514
▁ශක්තිමත්	-2515
▁අල්ලා	-2516
සාර	-2517
▁නාව	-2518
වශ්‍ය	-2519
▁ලෝකය	-2520
කාරි	-2521
සියේ	-2522
▁පරිවර්	-2523
▁ගෞර	-2524
of	-2525
ංකු	-2526
▁මරණය	-2527
▁ආදාය	-2528
ද්දේ	-2529
▁නොකළ	-2530
▁අලෙ	-2531
▁දොර	-2532
▁අකු	-2533
ද්‍ර	-2534
සිරි	-2535
▁සිතුව	-2536
▁කැමැත්ත	-2537
▁අර්බු	-2538
▁වෙළෙ	-2539
ක්කේ	-2540
ශෝධ	-2541
▁කටයු	-2542
▁පාරිභෝගික	-2543
▁අක්	-2544
කිරීම	-2545
▁ප්‍රතිචාර	-2546
සාද	-2547
ේප	-2548
▁කෑම	-2549
රත්න	-2550
▁ව්‍යාපෘතිය	-2551
පිරි	-2552
සුම	-2553
▁සීමා	-2554
▁ඉතිහාස	-2555
▁ප‍්‍රති	-2556
▁කලාප	-2557
▁සංචාරක	-2558
▁එකඟ	-2559
▁ගම්	-2560
▁ඔව්	-2561
▁පවත්ව	-2562
▁මෙහෙම	-2563
ිකාවේ	-2564
▁ගණන්	-2565
▁අට	-2566
▁ආයෝජ	-2567
▁ප්‍රමාණයක්	-2568
▁ඔන්න	-2569
▁සහාය	-2570
▁ඇසු	-2571
▁අභි	-2572
▁ද්	-2573
▁දැනුවත්	-2574
▁වෘත්තීය	-2575
▁පාප	-2576
▁සිනමා	-2577
▁ගිනි	-2578
▁භාෂ	-2579
▁ලැ	-2580
බේ	-2581
▁වාහන	-2582
▁පාලන	-2583
▁මොනවා	-2584
▁කාලෙ	-2585
▁පක්ෂය	-2586
▁කන	-2587
▁නොවැ	-2588
▁රජු	-2589
▁ගම	-2590
▁අරගෙන	-2591
ත්තර	-2592
▁දුව	-2593
▁අවසාන	-2594
▁පාවි	-2595
▁කථා	-2596
බාධ	-2597
▁සති	-2598
▁ශිෂ්‍ය	-2599
▁සමන්	-2600
ර්ණ	-2601
ෝප	-2602
▁අතීත	-2603
▁ඉලක්ක	-2604
▁තිබුණි	-2605
▁ක්‍රි	-2606
▁දිනා	-2607
යෙන්ම	-2608
▁විඳ	-2609
▁උතුරු	-2610
▁සටහන	-2611
▁අත්දැකීම්	-2612
්ය	-2613
▁ගල	-2614
▁දුර්	-2615
▁නොල	-2616
ස්ම	-2617
ෂන්	-2618
▁වසංග	-2619
▁සල්ලි	-2620
රින්	-2621
▁තරු	-2622
▁හදා	-2623
▁අධි	-2624
▁සබ	-2625
▁අධිකරණ	-2626
▁පිළිබද	-2627
ාපනය	-2628
▁ප්‍රථ	-2629
▁සදහන්	-2630
▁ආචාර්ය	-2631
▁වැඩිය	-2632
▁2013	-2633
▁අධිකාර	-2634
රියා	-2635
▁අපහසු	-2636
▁ලෝ	-2637
lo	-2638
▁ජනපති	-2639
▁පවතී	-2640
▁මව	-2641
▁පුළු	-2642
ලෝක	-2643
ධාරණ	-2644
▁පිළිතුරු	-2645
▁ජංගම	-2646
ත්වයක්	-2647
▁ඉන්දීය	-2648
▁ගුරුව	-2649
▁මණ්ඩල	-2650
▁ගන්නට	-2651
▁21	-2652
ණ්ඩාර	-2653
▁සිටී	-2654
▁නිර්දේශ	-2655
▁කණ්ඩායම්	-2656
▁නිරත	-2657
▁අගය	-2658
▁විශ්වවිද්‍ය	-2659
▁හැඳ	-2660
▁එක්ව	-2661
us	-2662
▁සුබ	-2663
▁උන්වහන්සේ	-2664
▁හින්	-2665
▁තබ	-2666
▁පක්ෂයේ	-2667
▁නිම	-2668
▁සමාගම්	-2669
▁නියෝජිත	-2670
▁ආගමික	-2671
▁සපය	-2672
ිරා	-2673
▁වන්න	-2674
▁දාලා	-2675
රාව	-2676
▁බෙහෙ	-2677
▁ජේ	-2678
▁ඉතාම	-2679
▁සංශෝධ	-2680
▁ලස්සන	-2681
▁බයි	-2682
▁කෙළ	-2683
▁ඇමෙර	-2684
▁බිය	-2685
ර්මය	-2686
ක්ෂිත	-2687
ල්ලට	-2688
▁වයස	-2689
හසක්	-2690
▁අරන්	-2691
රිම	-2692
ive	-2693
සර්	-2694
▁අනේ	-2695
▁අවධාරණය	-2696
▁ලියන්න	-2697
▁කඩු	-2698
▁ඕනෑ	-2699
▁සැර	-2700
▁දුක	-2701
▁තිබුණු	-2702
▁නඩු	-2703
▁2016	-2704
:3	-2705
▁පිලි	-2706
▁දේව	-2707
සිදු	-2708
▁පවුලේ	-2709
▁ප්‍රේ	-2710
▁යහපත්	-2711
▁ලියන	-2712
▁ඇප	-2713
▁ආදිය	-2714
විල්	-2715
ew	-2716
ඬුව	-2717
▁පිවි	-2718
!!	-2719
▁දන්නේ	-2720
▁ආයු	-2721
▁Pre	-2722
හත්	-2723
කයක්	-2724
▁පණි	-2725
▁පත්‍ර	-2726
▁එකෙන්	-2727
▁•	-2728
▁ගන්නවා	-2729
ිකව	-2730
▁ප්‍රසිද්ධ	-2731
ජන්	-2732
ාත්මක	-2733
තීන්	-2734
▁පර්යේෂණ	-2735
සෙන	-2736
▁දෙයි	-2737
▁කොළ	-2738
▁විසි	-2739
මාත්‍ය	-2740
▁මණ්ඩලය	-2741
▁විභාග	-2742
▁වික්‍රමසිංහ	-2743
පුරු	-2744
▁..	-2745
▁100	-2746
▁සම්පත්	-2747
▁දම	-2748
▁නතර	-2749
▁පැවසුවේ	-2750
▁කරන්නෙ	-2751
▁කඩා	-2752
දෙනු	-2753
▁හෙළ	-2754
▁සිටියා	-2755
▁U	-2756
▁සියළු	-2757
▁බලන	-2758
▁කෙරේ	-2759
▁වුණත්	-2760
▁ලක්ෂණ	-2761
▁සිටින්නේ	-2762
▁ආරක්ෂාව	-2763
▁කරමු	-2764
▁කුරු	-2765
▁සතුටු	-2766
▁උත්තර	-2767
මුණු	-2768
▁දෙන්නේ	-2769
▁පුද්ගලයන්	-2770
▁පූජ	-2771
▁දක්වන	-2772
යෙහි	-2773
▁24	-2774
▁තුව	-2775
os	-2776
▁වර්ණ	-2777
▁නමින්	-2778
▁මෙතන	-2779
ෝම	-2780
▁අවසර	-2781
▁ලාංකික	-2782
ෙන්නට	-2783
▁සුවි	-2784
▁ශක්තිය	-2785
▁දුන්න	-2786
▁නාවික	-2787
▁දාන්න	-2788
▁සැපය	-2789
ur	-2790
▁කන්න	-2791
▁අනුගමනය	-2792
▁හොයා	-2793
▁වාර	-2794
▁මෑ	-2795
▁මර්	-2796
▁පරිගණ	-2797
▁තාක්ෂණ	-2798
▁සිදුකර	-2799
▁වෙළෙඳ	-2800
▁උණු	-2801
▁සමි	-2802
▁ව්‍යවස්ථ	-2803
න්දේ	-2804
▁ගෝඨාභය	-2805
▁ජූ	-2806
▁අධ්‍යාපනය	-2807
▁දෙනවා	-2808
ට්ටම	-2809
▁යන්ත්‍ර	-2810
▁යමක්	-2811
චනය	-2812
ුද්ධ	-2813
▁ගිණු	-2814
▁අවි	-2815
වෙලා	-2816
▁නුවර	-2817
▁තියනවා	-2818
▁සංවර්ධනය	-2819
▁යුග	-2820
▁රටවල	-2821
න්දුව	-2822
▁තාත්තා	-2823
▁එල	-2824
▁ප්‍රතිඵල	-2825
▁චීන	-2826
▁වීමේ	-2827
oo	-2828
icle	-2829
▁w	-2830
ext	-2831
:4	-2832
▁රැසක්	-2833
▁පුද්ගලයින්	-2834
▁හෙට	-2835
▁2017	-2836
ගත්ත	-2837
▁කත	-2838
මුද	-2839
▁මහාචාර්ය	-2840
ස්ථාන	-2841
▁ඝාතනය	-2842
▁සිදුවූ	-2843
▁හිතා	-2844
▁කතාවක්	-2845
▁අනාවරණය	-2846
▁කරගත්	-2847
ූර	-2848
▁සැලකි	-2849
▁තිබිණි	-2850
▁නියෝජ්‍ය	-2851
▁බණ්ඩාර	-2852
ට්‍ර	-2853
▁සමාග	-2854
▁මූල්‍ය	-2855
▁අප්	-2856
ගහ	-2857
▁නැවතත්	-2858
ir	-2859
▁මෘ	-2860
:5	-2861
කයේ	-2862
''	-2863
▁පාවිච්චි	-2864
▁යෑ	-2865
▁පවත්වාගෙන	-2866
▁ත්‍රස්ත	-2867
▁නියෝජනය	-2868
▁ඉහල	-2869
▁රෝහ	-2870
▁උද්	-2871
vious	-2872
▁පවුල්	-2873
ඹුරු	-2874
▁විකල්ප	-2875
▁ජනතාවගේ	-2876
▁සමර	-2877
▁සංඛ්‍යාව	-2878
ඤ්ඤ	-2879
▁නිවා	-2880
▁සලක	-2881
▁දෙවියන්	-2882
▁ආත්ම	-2883
වෙනි	-2884
▁උත්සව	-2885
▁මිතුර	-2886
▁කිව්ව	-2887
ෙලා	-2888
▁නිසාය	-2889
වේදනය	-2890
▁උදාහ	-2891
නීය	-2892
▁ලී	-2893
▁ඔයාට	-2894
▁විශි	-2895
▁ආශ්‍ර	-2896
▁බවක්	-2897
▁2020	-2898
පත්ති	-2899
▁සිටීම	-2900
▁බන්ධනාගාර	-2901
▁පොල්	-2902
▁පත	-2903
▁කුස	-2904
▁බැංකු	-2905
▁බං	-2906
▁වෙඩි	-2907
▁පොත	-2908
ක්ෂේප	-2909
▁හමුදාව	-2910
▁සුන්දර	-2911
විතේ	-2912
▁2018	-2913
▁in	-2914
ලාභ	-2915
ටී	-2916
පල	-2917
▁ප්‍රිය	-2918
සියට	-2919
කමක්	-2920
▁රැකියා	-2921
▁මෙවර	-2922
▁ප්‍රමුඛ	-2923
▁තෙක්	-2924
▁මොනව	-2925
▁දකින	-2926
▁බහුතර	-2927
▁භාග	-2928
වයං	-2929
කැ	-2930
▁ඒකාබද්ධ	-2931
▁හිතු	-2932
▁කොටසක්	-2933
▁බිරි	-2934
▁තිබෙන්නේ	-2935
▁පෙරේරා	-2936
▁ප්‍රමාණ	-2937
සේකර	-2938
▁ගරු	-2939
වීමක්	-2940
▁අතරින්	-2941
▁බඩ	-2942
දේශීය	-2943
▁සංවිධාන	-2944
▁වරක්	-2945
▁පහස	-2946
▁දිස්ත්‍රික්ක	-2947
▁දුරකථන	-2948
▁වරා	-2949
▁පාඩ	-2950
▁22	-2951
▁50	-2952
........	-2953
▁භික්ෂ	-2954
▁පුදුම	-2955
▁කවර	-2956
්‍රී	-2957
▁Previous	-2958
▁ළම	-2959
▁හැඩ	-2960
▁හැඳින්	-2961
ණයෙන්	-2962
▁පුළුල්	-2963
ෙස්	-2964
▁දැක්වූ	-2965
▁2019	-2966
▁හොර	-2967
▁පද්ධතිය	-2968
▁මිස	-2969
▁පුව	-2970
▁ජ්‍ය	-2971
▁නිවසේ	-2972
▁මගෙ	-2973
▁නිළ	-2974
ig	-2975
▁රෝහල	-2976
▁මෙතෙක්	-2977
▁තුනක්	-2978
▁වත්ම	-2979
▁වෙලාවට	-2980
▁මුදලක්	-2981
▁හිතුව	-2982
▁විජේ	-2983
▁ළමා	-2984
▁නැගෙන	-2985
වාහි	-2986
▁තහනම්	-2987
▁දිනයේ	-2988
▁සම්පූර්	-2989
ct	-2990
im	-2991
ක්ෂක	-2992
▁ඉන්දියාව	-2993
▁ස්වයං	-2994
▁හොඳයි	-2995
▁උපරිම	-2996
▁උනත්	-2997
සියම්	-2998
භාවික	-2999
▁සිත්	-3000
දාම	-3001
▁අග්‍රා	-3002
▁අරගල	-3003
වියේ	-3004
නයා	-3005
ගන්	-3006
▁සම්මා	-3007
ජින	-3008
▁පෘ	-3009
පන්	-3010
▁ආපසු	-3011
▁දිහා	-3012
යිට්	-3013
▁ඉඩම්	-3014
▁K	-3015
▁ජාති	-3016
බෝ	-3017
▁රත්	-3018
▁බාර	-3019
▁ලැබී	-3020
▁අඟ	-3021
▁ප්‍රථම	-3022
ාවලිය	-3023
▁සිතා	-3024
ෙකුගේ	-3025
▁ධන	-3026
▁රැඳ	-3027
▁රඟ	-3028
▁නඩ	-3029
හරි	-3030
▁එතුමා	-3031
▁දැනු	-3032
▁මට්ටම	-3033
▁අතිශ	-3034
▁මෛත්‍රී	-3035
▁දීර්	-3036
මො	-3037
▁සලකා	-3038
▁නිසාම	-3039
▁අග්‍රාමාත්‍ය	-3040
▁අභ්‍ය	-3041
රන්	-3042
▁මරා	-3043
▁ආධාර	-3044
▁රසා	-3045
▁මංගල	-3046
▁ප්‍රයෝජ	-3047
චි	-3048
▁අත්‍ය	-3049
▁වැටු	-3050
▁රැකිය	-3051
▁කිසිවක්	-3052
▁වගකීම	-3053
▁කියයි	-3054
▁කඳ	-3055
▁ඔක්කො	-3056
▁වහාම	-3057
com	-3058
▁දෘ	-3059
වලා	-3060
නුවර	-3061
▁නීතිඥ	-3062
▁විශේෂඥ	-3063
▁බලපෑම්	-3064
▁දඬුව	-3065
ාවා	-3066
▁ගෝල	-3067
▁මින	-3068
▁පුරවැ	-3069
▁අංග	-3070
▁උන	-3071
හම	-3072
දන්	-3073
▁පරීක්ෂා	-3074
▁මිනිසා	-3075
ut	-3076
▁තුරු	-3077
▁චන්ද්‍ර	-3078
▁බලපා	-3079
▁නිදහස	-3080
▁මාගේ	-3081
▁නිරී	-3082
න්දි	-3083
▁අනතුර	-3084
විඩ	-3085
▁ටී	-3086
ගැන්	-3087
ෙමින්	-3088
▁ව්‍යාපාරික	-3089
▁කථ	-3090
▁වත්මන්	-3091
යෙ	-3092
නිසා	-3093
▁දන්නා	-3094
▁වියදම්	-3095
සිල්	-3096
▁හඳුන්වා	-3097
▁ඊළඟ	-3098
ංස	-3099
▁ආශ	-3100
ත්වයට	-3101
ස්කෝ	-3102
ගෝ	-3103
▁පාට	-3104
▁අයියා	-3105
▁ගිහි	-3106
▁මධ්‍යම	-3107
▁සරල	-3108
▁වන්නට	-3109
▁කුමක්ද	-3110
▁පුද්ගලයා	-3111
ක්කු	-3112
▁දක්නට	-3113
පිළිවෙ	-3114
නක	-3115
▁මැර	-3116
ජාතන්ත්‍ර	-3117
▁කාන්තාවන්	-3118
▁එතන	-3119
▁රටක්	-3120
:2	-3121
▁දැනුම	-3122
▁සිද්ධිය	-3123
දනාව	-3124
හී	-3125
ශ්ය	-3126
ව්ව	-3127
▁වංච	-3128
▁මස්	-3129
:0	-3130
▁ආණ්ඩුවේ	-3131
▁මැදිහ	-3132
▁පවසන්නේ	-3133
▁රූ	-3134
ෙට	-3135
▁නොලැබ	-3136
▁පුතා	-3137
▁තාම	-3138
▁දුන්නා	-3139
▁අන්ද	-3140
.1	-3141
▁පැමිණෙන	-3142
▁රෝහල්	-3143
▁බොරු	-3144
▁මැයි	-3145
▁පදන	-3146
▁ආසාදිත	-3147
දුරුව	-3148
▁තිබීම	-3149
▁ජෝ	-3150
▁වසා	-3151
▁ජනවාරි	-3152
▁බලපෑ	-3153
▁පැට	-3154
▁සභාවේ	-3155
▁සාධාරණ	-3156
සන්න	-3157
eb	-3158
▁නැත්ත	-3159
▁අවස්ථාවක්	-3160
තාල	-3161
▁නෝ	-3162
▁උපකරණ	-3163
▁Post	-3164
▁පහසුවෙන්	-3165
රම	-3166
▁ලැබු	-3167
▁ගී	-3168
▁කියවන්න	-3169
▁ඒකට	-3170
▁පිරිසිදු	-3171
▁එන්නත්	-3172
ධිර	-3173
▁දෙවැනි	-3174
වක	-3175
▁ඉන්දියාවේ	-3176
▁එකින	-3177
▁පාර්ලිමේන්තුවේ	-3178
ab	-3179
ස්තා	-3180
▁විචාර	-3181
▁පරිශී	-3182
▁23	-3183
▁කරුණා	-3184
▁පන්දු	-3185
තුංග	-3186
▁h	-3187
▁ඉව	-3188
▁ඵල	-3189
▁ලැබුණු	-3190
▁මොහොතේ	-3191
▁ආරාධ	-3192
▁පොරො	-3193
▁කැඳ	-3194
ේල්	-3195
නයන්	-3196
හැන	-3197
ව්වා	-3198
▁හෝට	-3199
වතුන්	-3200
ාරා	-3201
වීමෙන්	-3202
▁රෑ	-3203
නාත්මක	-3204
▁ප්‍රජාතන්ත්‍ර	-3205
පසු	-3206
ep	-3207
▁මුලින්ම	-3208
▁ගුණා	-3209
▁සුවිශේෂ	-3210
▁හිස	-3211
▁ආවා	-3212
විලි	-3213
▁ගනී	-3214
▁අවදාන	-3215
ිප්	-3216
ක්ම	-3217
රුවා	-3218
න්‍යා	-3219
▁කාර්යාල	-3220
▁ඉදිකිර	-3221
▁සංකල්ප	-3222
▁ශරීර	-3223
ීමේදී	-3224
පර	-3225
ක්වා	-3226
▁ශ‍්‍රී	-3227
ඳා	-3228
▁කිලෝ	-3229
▁ප්රති	-3230
කුට	-3231
▁පෑ	-3232
ඩක්	-3233
වරණ	-3234
▁ජීවිතයේ	-3235
ශ්ව	-3236
▁දශ	-3237
යම	-3238
▁තේර	-3239
▁එලෙස	-3240
▁ලෙසින්	-3241
පාලන	-3242
▁පිළිවෙ	-3243
▁දිසා	-3244
▁සාහි	-3245
▁කැබින	-3246
▁ඇස	-3247
▁වැය	-3248
▁රතු	-3249
▁විධා	-3250
▁පිරිමි	-3251
▁ප්‍රභ	-3252
▁වාහ	-3253
▁පිලිබඳ	-3254
▁දන්නවා	-3255
▁බාල	-3256
▁ලැයි	-3257
▁පැතිර	-3258
▁''	-3259
▁ගණනක්	-3260
omments	-3261
▁විමර්ශන	-3262
▁මල	-3263
ation	-3264
▁උපකාර	-3265
▁නිපද	-3266
▁නොකරන	-3267
▁අනතුරු	-3268
▁දැයි	-3269
▁හේතුවක්	-3270
මාණ	-3271
දුවේ	-3272
▁හොය	-3273
▁කිව්වේ	-3274
▁ජනපද	-3275
වේග	-3276
▁රච	-3277
▁ඇන්	-3278
▁උදෙ	-3279
▁තුවාල	-3280
▁වුනත්	-3281
ියක	-3282
▁දුටු	-3283
ූරු	-3284
▁හානි	-3285
ගන්නට	-3286
▁රුධිර	-3287
තල්	-3288
▁සමාජයේ	-3289
▁ථ	-3290
▁එදින	-3291
▁වාස	-3292
▁ගැටු	-3293
පත්ත	-3294
▁කාන්තා	-3295
▁ප්‍රවේශ	-3296
▁නොවූ	-3297
▁කොයි	-3298
▁කාට	-3299
▁මැන	-3300
▁ප්‍රචාර	-3301
▁ගාන	-3302
▁re	-3303
වෙන්නේ	-3304
▁වීමෙන්	-3305
▁කවද	-3306
▁සංස්කෘ	-3307
▁ඉරි	-3308
තාවයක්	-3309
▁මෙහෙය	-3310
▁අපේක්ෂා	-3311
▁ජු	-3312
▁එකතුව	-3313
යම්	-3314
▁තාක්ෂණය	-3315
▁පෙම්	-3316
▁පෙනෙන	-3317
▁ඉංග්‍රී	-3318
▁හාමු	-3319
▁අයිතිය	-3320
▁කියලයි	-3321
බිම	-3322
▁විද්‍යාල	-3323
වීර	-3324
නාන්දු	-3325
▁ජීවිතේ	-3326
▁දීර්ඝ	-3327
ලන්	-3328
▁ගණනාවක්	-3329
30	-3330
▁බිරිඳ	-3331
▁කිරීමේදී	-3332
▁උදේ	-3333
▁සිටිනවා	-3334
ශීලී	-3335
▁බලධාර	-3336
ට්ස්	-3337
▁පාද	-3338
▁of	-3339
සුරු	-3340
▁තවද	-3341
▁කල්පනා	-3342
▁සම්මත	-3343
▁උදෙසා	-3344
▁සංස්	-3345
ණයට	-3346
▁සම්මාන	-3347
▁Next	-3348
ද්දක්	-3349
ාමී	-3350
▁පැරණි	-3351
▁ඉතිහාසය	-3352
▁ජනයා	-3353
▁දැනටමත්	-3354
▁මෙහෙයුම්	-3355
▁ඔක්කොම	-3356
▁මිත්‍ර	-3357
▁2011	-3358
▁උදාහරණ	-3359
▁ස්තූ	-3360
▁නුඹ	-3361
▁මහත්මිය	-3362
ූන්	-3363
ටෝ	-3364
ීමත්	-3365
▁ඇතිව	-3366
▁වහන්සේගේ	-3367
සම්	-3368
▁කැබිනට්	-3369
▁අම්	-3370
▁හිතන්නේ	-3371
▁නොමි	-3372
▁ඉක්මනින්	-3373
හරු	-3374
▁ටෙලි	-3375
▁විෂය	-3376
▁ප‍්‍රකාශ	-3377
▁මාර්තු	-3378
▁විද්‍යාව	-3379
ෆි	-3380
▁බය	-3381
▁ජීවත්ව	-3382
▁එකයි	-3383
▁පුරුදු	-3384
▁දෙය	-3385
▁නැග	-3386
▁කවුද	-3387
▁ආලෝක	-3388
ගල්	-3389
▁ත්‍රි	-3390
201	-3391
▁දිවයි	-3392
▁මල්ලි	-3393
▁විධායක	-3394
▁සියයට	-3395
▁ප්‍රතික්ෂේප	-3396
▁වැඩපිළිවෙ	-3397
▁තත්ත්වයක්	-3398
▁කිරීමක්	-3399
▁පුද්ගලික	-3400
▁ගැටලු	-3401
▁විශිෂ්ට	-3402
▁වැඩිම	-3403
▁විදෙස්	-3404
▁සංඝ	-3405
▁ප්‍රදර්ශ	-3406
▁26	-3407
▁ඇඳුම්	-3408
වාසික	-3409
▁ධාව	-3410
ka	-3411
▁ලබාදීම	-3412
▁හෙයින්	-3413
කිරීමට	-3414
▁කුල	-3415
▁199	-3416
▁පුළුව	-3417
▁මෘදු	-3418
▁මුදල	-3419
▁අනිවාර්ය	-3420
ටික්	-3421
▁බලාගෙන	-3422
▁මව්	-3423
▁කුමන	-3424
▁සාම	-3425
▁සිවිල්	-3426
▁පදිංචි	-3427
▁විරෝධී	-3428
▁අළු	-3429
පියන්	-3430
▁ජනාධිපතිතුමා	-3431
▁ඇමරිකානු	-3432
▁පැළ	-3433
▁ප්‍රශ්නයක්	-3434
ස්ටර්	-3435
▁මළ	-3436
ොත්ත	-3437
▁වෙහ	-3438
▁ගස්	-3439
▁එජ	-3440
▁කරදර	-3441
▁ක්‍රියාවලිය	-3442
▁සංගමය	-3443
▁වේවා	-3444
▁ඇයගේ	-3445
▁ආකාරයෙන්	-3446
▁මොකක්ද	-3447
▁අඩංගු	-3448
වුල්	-3449
▁වේවි	-3450
▁සෘ	-3451
යනය	-3452
සින	-3453
ස්ට්‍රේ	-3454
සියන්	-3455
▁වුණු	-3456
මන්ත්‍ර	-3457
▁පෙරමුණ	-3458
▁මාරු	-3459
▁සාහිත්‍ය	-3460
ිතව	-3461
ංශය	-3462
ary	-3463
▁එකත්	-3464
▁සංස්කෘතිය	-3465
▁වර්තමා	-3466
ිතාන්‍ය	-3467
▁විහි	-3468
▁අවශ්ය	-3469
▁එනවා	-3470
▁සදා	-3471
▁මෝටර්	-3472
▁කොර	-3473
▁සහය	-3474
▁සම්බන්ධව	-3475
▁මනා	-3476
▁ආරක්‍ෂ	-3477
▁මර	-3478
කාලීන	-3479
▁ගෘ	-3480
▁විශ්වාසය	-3481
▁මමත්	-3482
▁මතුව	-3483
ියු	-3484
▁දෙමින්	-3485
▁දරුවන්ට	-3486
▁ගනුදෙනු	-3487
▁අලි	-3488
▁ප්‍රවෘ	-3489
යිඩ්	-3490
ාන්	-3491
▁දීලා	-3492
▁නිහ	-3493
රයක්	-3494
▁ප්‍රාදේශීය	-3495
▁කුම	-3496
▁නවක	-3497
▁ජ්‍යෙ	-3498
▁ලාභ	-3499
▁බිලියන	-3500
▁කව	-3501
▁පලා	-3502
මින	-3503
▁ස්ථාව	-3504
ල්ලු	-3505
ළෙ	-3506
▁ශී	-3507
ඩෝ	-3508
▁සාක්ෂි	-3509
▁පොඩ්	-3510
▁වනවා	-3511
ගැනීමේ	-3512
▁අසල	-3513
▁සහගත	-3514
▁මුද්‍ර	-3515
පමණ	-3516
ාවූ	-3517
▁කණ්ඩායමේ	-3518
▁රූපවාහි	-3519
කෙ	-3520
ිරිය	-3521
ඩී	-3522
▁කළහ	-3523
▁සැලකිය	-3524
▁බ්‍රිතාන්‍ය	-3525
▁මුහුදු	-3526
▁සබඳ	-3527
වලදී	-3528
▁ස්තු	-3529
ow	-3530
වැන්න	-3531
▁කවි	-3532
▁පිරිස්	-3533
ug	-3534
▁සිදුකළ	-3535
තුම	-3536
ක්තෝ	-3537
▁නැගෙනහිර	-3538
▁බැංකුව	-3539
▁කොන්	-3540
ip	-3541
ෂ්ණ	-3542
▁27	-3543
▁දිවි	-3544
▁වෙනසක්	-3545
▁ඉතාමත්	-3546
▁සජිත්	-3547
රළ	-3548
▁පරිවර්තනය	-3549
වාහන	-3550
▁කොම	-3551
▁වේල	-3552
▁නැතිනම්	-3553
▁සඟ	-3554
▁නොසි	-3555
ate	-3556
▁ක්‍රියාකාර	-3557
ෙකා	-3558
▁නරක	-3559
▁දුර්වල	-3560
▁කපා	-3561
▁මඩ	-3562
▁හරිම	-3563
ඩර්	-3564
▁වනා	-3565
▁ගොඩනැගි	-3566
හය	-3567
▁ලෙසත්	-3568
▁සින්	-3569
▁අයගේ	-3570
▁පොලීසිය	-3571
▁2021	-3572
මෙන්ට්	-3573
▁සමීප	-3574
▁තිස්සේ	-3575
ස්ථානයේ	-3576
▁ශාල	-3577
▁මාතෘ	-3578
රත්	-3579
▁වැඩිහි	-3580
▁හැක්කේ	-3581
▁හදිසි	-3582
▁ගබ	-3583
▁සාමාන්‍යයෙන්	-3584
▁පරාජය	-3585
▁මතය	-3586
▁උපන්	-3587
▁නොමැතිව	-3588
▁වශයෙන්ම	-3589
▁නොති	-3590
▁සංකී	-3591
▁හිටියා	-3592
▁කැල	-3593
.5	-3594
▁අල්	-3595
ers	-3596
▁සැලක	-3597
▁නූ	-3598
▁වහ	-3599
▁වෙනි	-3600
.)	-3601
ෝල්	-3602
ලික්	-3603
ust	-3604
▁හිස්	-3605
▁දුෂ්	-3606
▁වැර	-3607
▁බාධ	-3608
▁භාවිතය	-3609
▁වුනේ	-3610
▁පස	-3611
▁උතුර	-3612
▁මිනිසු	-3613
▁ෆේස්	-3614
▁ජයග්‍රහණය	-3615
▁ත්	-3616
▁ලියාප	-3617
▁28	-3618
▁දැක්ක	-3619
▁හය	-3620
▁”	-3621
▁එහා	-3622
▁කැර	-3623
▁නොමැ	-3624
▁සෙල්ල	-3625
▁යූ	-3626
▁නිශ්ච	-3627
▁එජාප	-3628
▁අන්තර්ගත	-3629
▁මධ	-3630
ණී	-3631
▁දැරිය	-3632
▁කටු	-3633
▁ප්‍රනාන්දු	-3634
▁ගැස	-3635
▁අමාත්‍යාංශය	-3636
//	-3637
▁ගමේ	-3638
/5	-3639
▁බලාපොරොත්ත	-3640
▁රෝගී	-3641
▁ආපු	-3642
ලෙන්	-3643
▁නගරයේ	-3644
▁පෙනේ	-3645
වනවා	-3646
▁කොච්චර	-3647
▁නොවී	-3648
▁කිසියම්	-3649
ඳුරු	-3650
▁බැවිනි	-3651
▁වැඩසටහන්	-3652
▁ගන	-3653
▁හිතේ	-3654
▁(0	-3655
ජ්‍ය	-3656
▁සමන්විත	-3657
▁බිම	-3658
▁පාර්ශ	-3659
▁වටහා	-3660
▁අරමුද	-3661
▁ඇල්	-3662
▁සුපිරි	-3663
▁නාල	-3664
▁පුරුෂ	-3665
▁ඔක්තෝ	-3666
▁සමාගමේ	-3667
▁සේනා	-3668
ණයෙන්ම	-3669
▁වින්	-3670
▁ආකාරයේ	-3671
පතිවරයා	-3672
▁ටැ	-3673
▁බරපතල	-3674
▁ඉදි	-3675
▁වයි	-3676
▁විර	-3677
▁පුහුණ	-3678
පර්	-3679
▁ගැනීමෙන්	-3680
ලන	-3681
▁උපදේශ	-3682
▁නිසයි	-3683
▁චෝ	-3684
▁සවි	-3685
▁කම	-3686
▁ප්‍රබල	-3687
▁කප	-3688
▁රෝගීන්	-3689
▁කොට්	-3690
වතු	-3691
▁ඇතිවන	-3692
▁ලඟ	-3693
▁සම්ප්‍ර	-3694
දෙනා	-3695
▁මනෝ	-3696
ට්ටුව	-3697
▁ආබාධ	-3698
යන්ගෙන්	-3699
▁කීවේය	-3700
▁පැවැත්වෙන	-3701
▁එහෙන	-3702
යො	-3703
ෙමු	-3704
▁රහ	-3705
මුන්	-3706
▁පාස්	-3707
▁වෙච්ච	-3708
න්ති	-3709
ප්තැ	-3710
▁යන්නට	-3711
පාර	-3712
▁ව්‍යාප්	-3713
ංගලන්ත	-3714
▁art	-3715
▁විද්	-3716
▁ඉස්ලා	-3717
▁දුරටත්	-3718
▁නමැති	-3719
නුකූල	-3720
කයන්ට	-3721
▁ලබාදීමට	-3722
▁අයුරු	-3723
▁පෙන්නුම්	-3724
▁පක්‍ෂ	-3725
▁කෙනෙකුට	-3726
▁සිදුවීම	-3727
▁අමර	-3728
▁රෝගය	-3729
පස	-3730
▁ආනය	-3731
▁දේශපාලනය	-3732
වන්ත	-3733
දායී	-3734
▁ප්‍රතිපත්ති	-3735
▁පනත	-3736
▁කණ	-3737
▁ජනරාල්	-3738
▁ඕනෙ	-3739
▁සයි	-3740
▁ලබාදෙන	-3741
▁සතුව	-3742
ංකාර	-3743
▁මටත්	-3744
ජ්ජ	-3745
▁පූර්	-3746
▁ජ්‍යෙෂ්ඨ	-3747
▁ගැටළු	-3748
ිනවා	-3749
මීට	-3750
▁ඥා	-3751
▁වැල	-3752
ෂි	-3753
▁සිදුවීම්	-3754
▁ස්වාධ	-3755
▁ප්‍රකාශයට	-3756
▁මාත්	-3757
▁යොද	-3758
▁යුත්	-3759
▁කොහෙ	-3760
▁එන්	-3761
▁දැමීම	-3762
▁දෙසැ	-3763
▁තරමට	-3764
මෝ	-3765
▁කරගත	-3766
ියාගේ	-3767
▁හැකියාවක්	-3768
▁ගැහැ	-3769
▁ෆි	-3770
op	-3771
▁:)	-3772
▁එව	-3773
▁ග්‍රහ	-3774
▁උපාංග	-3775
▁පත්තර	-3776
▁පොර	-3777
▁Ap	-3778
▁අමාරු	-3779
▁පණ	-3780
▁නොමිලේ	-3781
▁ආයතනයේ	-3782
▁ඔප්පු	-3783
▁කූ	-3784
▁රාශ	-3785
▁මහතාට	-3786
▁නිරූප	-3787
වෙන්න	-3788
▁ජීවන	-3789
▁article	-3790
▁පරිගණක	-3791
▁සෙට්	-3792
▁විමු	-3793
▁සරත්	-3794
▁තානා	-3795
▁කෘතිය	-3796
▁රජයට	-3797
▁ඉදිරියේදී	-3798
පිටිය	-3799
▁ගනි	-3800
▁අයිය	-3801
▁දරු	-3802
▁විමස	-3803
▁කමක්	-3804
▁වූහ	-3805
▁l	-3806
▁බලමු	-3807
▁එංගලන්ත	-3808
▁ඕක	-3809
▁හිමියන්	-3810
▁සිසුන්	-3811
▁ආර්	-3812
▁තාත්ත	-3813
▁අතරේ	-3814
▁එකා	-3815
▁පාස	-3816
ලම	-3817
▁වගා	-3818
▁මුණ	-3819
▁දක්වමින්	-3820
▁මුදා	-3821
වැන්ත	-3822
▁හුව	-3823
ter	-3824
▁ඉක්ම	-3825
ට්ටි	-3826
▁198	-3827
▁පිහිටුව	-3828
▁වෙනම	-3829
▁පැවැත්වීමට	-3830
▁තරගාවල	-3831
▁වර්තමාන	-3832
▁රෝහලේ	-3833
ගත්තේ	-3834
▁ශබ්	-3835
▁සංස්කෘතික	-3836
▁අයුරින්	-3837
▁අර්බුද	-3838
▁සිදුවිය	-3839
▁අංශයේ	-3840
▁කෙනෙකු	-3841
සරණ	-3842
ෙකි	-3843
▁පොහොර	-3844
▁ආව	-3845
▁කෘෂික	-3846
බුක්	-3847
ලාට	-3848
um	-3849
ණික	-3850
▁පිහිටා	-3851
▁එළි	-3852
▁අප්‍රේල්	-3853
▁දුෂ්කර	-3854
ාවක	-3855
ළා	-3856
▁ගැනත්	-3857
ක්‍රීය	-3858
▁ජාතී	-3859
▁නිස	-3860
▁දැවැන්ත	-3861
▁ලිපියක්	-3862
▁ප්‍රමාණවත්	-3863
ප්තැම්බර්	-3864
පුරා	-3865
▁මනුස්ස	-3866
▁ගාය	-3867
▁ක්‍රියාමාර්ග	-3868
▁දරා	-3869
▁නිවේදනය	-3870
තො	-3871
▁අතරතුර	-3872
▁ඉන්නෙ	-3873
▁අගෝ	-3874
තිහා	-3875
▁ඇට	-3876
▁පටි	-3877
▁කරමි	-3878
▁දෙකම	-3879
▁වැළැක්	-3880
Give	-3881
▁සන්නි	-3882
▁හිටියේ	-3883
රයා	-3884
▁වසංගත	-3885
රිස්	-3886
▁යෝග	-3887
▁බැහැර	-3888
▁දඩ	-3889
▁තුලින්	-3890
▁කම්කරු	-3891
▁බේරා	-3892
▁ප්‍රජ	-3893
▁එන්නේ	-3894
▁ඔවුහු	-3895
යාම	-3896
od	-3897
▁නිවේද	-3898
▁වටා	-3899
▁ලෙසට	-3900
▁පළමුව	-3901
▁ධී	-3902
▁කුසලා	-3903
▁ජාල	-3904
▁නින්ද	-3905
▁ලු	-3906
▁ධාර	-3907
▁පවසන	-3908
▁වලදී	-3909
▁අඩුව	-3910
▁බඩු	-3911
▁පරම්ප	-3912
▁බුදුර	-3913
කරුවන්ට	-3914
▁අයිතිවාසික	-3915
ඟින්	-3916
ub	-3917
▁දිනවල	-3918
▁දළ	-3919
▁කීපයක්	-3920
▁කාමර	-3921
▁පොළො	-3922
▁කාරණා	-3923
▁තරගය	-3924
▁කොටි	-3925
▁සාධක	-3926
▁කුණු	-3927
වරා	-3928
▁මිශ්‍ර	-3929
වරුන්ගේ	-3930
▁සහිතව	-3931
▁හුවමාර	-3932
▁නැඟ	-3933
පෝ	-3934
th	-3935
▁උළෙ	-3936
nd	-3937
▁නොදැන	-3938
.0	-3939
▁කුඩු	-3940
ලාගේ	-3941
යින්ගේ	-3942
▁අත්‍යවශ්‍ය	-3943
▁බැලුව	-3944
▁May	-3945
ාරී	-3946
▁විශ්ලේ	-3947
ra	-3948
▁අනුරාධ	-3949
▁29	-3950
▁වෛරසය	-3951
▁බලපෑම	-3952
▁සමයේ	-3953
▁ක්රී	-3954
▁දෙනු	-3955
▁උපු	-3956
▁සිටියහ	-3957
පක්‍ෂ	-3958
කන්	-3959
න්ධන	-3960
▁අවස්ථාවක	-3961
▁පරණ	-3962
▁කොට්ඨා	-3963
▁සතිය	-3964
▁නොවැම්බර්	-3965
▁බෝම්බ	-3966
▁40	-3967
▁ලැබි	-3968
▁පෝස්ට්	-3969
වැය	-3970
ගත්තා	-3971
▁එතැන	-3972
නාවක්	-3973
▁ව්‍යවස්ථා	-3974
▁සංගමයේ	-3975
පෑ	-3976
▁පමණයි	-3977
▁විද්‍යාඥ	-3978
මාධ්‍ය	-3979
▁අඛ	-3980
▁මහනුවර	-3981
ts	-3982
ම්ප්	-3983
කාව	-3984
▁නවී	-3985
ල්ස්	-3986
විරි	-3987
▁නොවෙයි	-3988
ෙනු	-3989
▁ඉංග්‍රීසි	-3990
▁එකී	-3991
▁ලියාපදිංචි	-3992
▁අලෙවි	-3993
50	-3994
ුණි	-3995
▁විධි	-3996
▁දියණිය	-3997
▁යෝජනාව	-3998
▁උරුම	-3999
▁උනේ	-4000
ember	-4001
▁ඩො	-4002
▁ක‍්‍රියා	-4003
▁දවසක්	-4004
▁ටයි	-4005
▁හොඳට	-4006
▁රසාය	-4007
ia	-4008
▁දරන	-4009
▁අවකාශ	-4010
▁තිබුනේ	-4011
▁පත්කර	-4012
▁වැලි	-4013
▁රෙදි	-4014
ියේදී	-4015
▁ගෘහ	-4016
▁අරමුණු	-4017
▁ප්‍රවෘත්ති	-4018
▁මනුෂ්‍ය	-4019
▁රටක	-4020
යක්ෂ	-4021
▁ආදරේ	-4022
▁ව්‍යාපාරය	-4023
▁සැප්තැම්බර්	-4024
▁කාරණය	-4025
▁අරා	-4026
▁පිටුව	-4027
▁සිදුකරන	-4028
▁n	-4029
▁නුව	-4030
▁කාර්යාලය	-4031
▁අනික	-4032
වික	-4033
▁වාසි	-4034
▁දෙසැම්බර්	-4035
ක්කා	-4036
▁කීය	-4037
චිත	-4038
▁නගරය	-4039
▁අත්සන්	-4040
▁නිරෝ	-4041
▁එතරම්	-4042
ස්ති	-4043
තාවට	-4044
▁මච	-4045
▁ආදි	-4046
▁දුන්නේය	-4047
▁අවශ්‍යතා	-4048
▁විද්‍යාත්මක	-4049
▁විශේෂයෙන්ම	-4050
▁දැමීමට	-4051
▁දියත්	-4052
▁වෙහෙස	-4053
▁වැඩිපුර	-4054
▁අවට	-4055
රික	-4056
සෝ	-4057
▁වගෙ	-4058
ලර්	-4059
▁ද්‍ර	-4060
ews	-4061
▁වුන	-4062
▁එවන්	-4063
▁නායකත්වය	-4064
▁හී	-4065
▁සහයෝගය	-4066
මං	-4067
▁ගොඩන	-4068
▁පරිශීලක	-4069
▁ක්‍රමයක්	-4070
▁කන්ද	-4071
විරිදි	-4072
්යා	-4073
▁අඩවි	-4074
▁යාල	-4075
▁ඩී	-4076
▁ඉස්කෝ	-4077
▁පණිවිඩ	-4078
ඩියා	-4079
ාරිස්	-4080
▁තිබුන	-4081
▁මෙයට	-4082
▁විරෝධය	-4083
▁එල්	-4084
▁පූජා	-4085
▁ජාතිය	-4086
▁ප‍්‍රශ්	-4087
▁කින්	-4088
▁පුන	-4089
▁අගෝස්තු	-4090
▁එළියට	-4091
▁අදහසක්	-4092
න්ගෙන්	-4093
▁රාත්‍ර	-4094
▁සුභ	-4095
▁ගීතය	-4096
▁බලවත්	-4097
පතා	-4098
ොස්	-4099
▁197	-4100
තෙම	-4101
වණ	-4102
▁නොමැත	-4103
▁ධීවර	-4104
▁උනන්ද	-4105
▁කියපු	-4106
ලයක්	-4107
▁ලැබෙනවා	-4108
ත්‍රය	-4109
▁වෙතින්	-4110
▁තමාගේ	-4111
▁ගෝලීය	-4112
▁දහස්	-4113
▁හදු	-4114
▁කට්ටිය	-4115
▁දාල	-4116
▁විසඳු	-4117
▁හිරු	-4118
▁තනතුර	-4119
වුණු	-4120
▁ඉඳන්	-4121
▁ලැබීම	-4122
ංගි	-4123
▁සාපේ	-4124
ත‍්‍ර	-4125
වන්නට	-4126
▁දිසානායක	-4127
▁අනුමත	-4128
මක	-4129
ටික	-4130
▁මාසයේ	-4131
ore	-4132
▁සංවාද	-4133
▁වරාය	-4134
ස්සා	-4135
▁ගැන්	-4136
uary	-4137
▁දස	-4138
▁අවධා	-4139
ටුවේ	-4140
තිමත්	-4141
▁තැනක	-4142
▁හැමෝම	-4143
න්ථ	-4144
වරයකු	-4145
කල්	-4146
▁ශ්‍රේෂ්ඨ	-4147
▁මුව	-4148
ගන	-4149
▁තරමක්	-4150
▁අභ්‍යන්තර	-4151
ශක්ති	-4152
......	-4153
▁සංර	-4154
▁පෙබර	-4155
▁සිටිති	-4156
▁කොමිස	-4157
▁වෙනස	-4158
▁ඉරා	-4159
ත්‍යාග	-4160
▁කර්	-4161
▁ලැබෙන්නේ	-4162
වින්ම	-4163
3)	-4164
පාදනය	-4165
▁කොන්දේ	-4166
▁පිළිතුර	-4167
▁අහන්න	-4168
▁දකින්න	-4169
▁කිරීමයි	-4170
▁විසඳ	-4171
▁හිතන්න	-4172
ාපිත	-4173
▁විමසා	-4174
▁එකෙක්	-4175
▁මෙවන්	-4176
▁සත්ව	-4177
▁සිටීමට	-4178
▁ස්වාම	-4179
▁ඔහොම	-4180
▁ඉනි	-4181
▁පූර්ණ	-4182
ලාස්	-4183
ළිය	-4184
පාදන	-4185
▁තරුණය	-4186
▁සම්පූර්ණයෙන්ම	-4187
▁පෙත්	-4188
▁පරීක්‍ෂ	-4189
▁ඡන්දය	-4190
▁අයිතිවාසිකම්	-4191
▁මට්ටමේ	-4192
▁ධර්මය	-4193
ුවන්ට	-4194
▁විකි	-4195
දෙන්න	-4196
▁ලද්දේ	-4197
ව්වේ	-4198
▁කතාබ	-4199
▁කවදාවත්	-4200
ාලි	-4201
▁හෘ	-4202
▁හැවිරිදි	-4203
▁බැලීමට	-4204
ww	-4205
හක්	-4206
▁පෙරම	-4207
▁ඉන්ධන	-4208
▁ගොවි	-4209
ලයි	-4210
▁රහස්	-4211
▁උණුසුම්	-4212
දිග	-4213
▁සමිති	-4214
▁ජපා	-4215
▁ග්	-4216
22	-4217
ිනම්	-4218
▁කණ්ඩායමක්	-4219
▁අපූරු	-4220
▁යටත්	-4221
වරුන්ට	-4222
age	-4223
▁මහත්තයා	-4224
▁ආණ්ඩුවට	-4225
▁ගත්තේය	-4226
▁මාලි	-4227
▁විරුද්ධව	-4228
▁එස්	-4229
▁ජාතීන්ගේ	-4230
▁බෙහෙත්	-4231
▁යුක්ත	-4232
▁පිරින	-4233
▁විප්	-4234
▁පසුගියදා	-4235
එස්	-4236
▁ඉතිහාසයේ	-4237
▁යථ	-4238
▁අධිකරණයට	-4239
වියට	-4240
▁හිඟ	-4241
▁චීනය	-4242
ර්ෂ	-4243
▁ඔබව	-4244
▁අතිරේ	-4245
▁සංශෝධනය	-4246
▁දවසේ	-4247
▁කාබ	-4248
▁පාර්ශව	-4249
▁තැනක්	-4250
▁ප්‍රයෝජන	-4251
▁ක්‍රියාකාරී	-4252
▁by	-4253
භාර	-4254
▁හදන	-4255
▁සිටියි	-4256
▁ගොනු	-4257
▁බලවේග	-4258
▁අනුමැ	-4259
▁චරිතය	-4260
▁විශ්වවිද්‍යාල	-4261
▁31	-4262
සංස්	-4263
▁සියලූ	-4264
▁කොමිසම	-4265
▁ලබයි	-4266
▁ආරංචි	-4267
▁එරට	-4268
මහ	-4269
▁විඳි	-4270
▁අතේ	-4271
▁මහත්ව	-4272
▁කඩුලු	-4273
කාමී	-4274
▁උපකාරී	-4275
▁යුව	-4276
ංශයේ	-4277
▁මණ්ඩලයේ	-4278
▁සෙසු	-4279
▁g	-4280
▁වැටුප්	-4281
▁මෛත්‍රීපාල	-4282
දානය	-4283
▁කරති	-4284
▁ජාව	-4285
▁මොහොත	-4286
▁පල්ල	-4287
▁ස්ථානයේ	-4288
ist	-4289
▁ෆේස්බුක්	-4290
▁ලදි	-4291
▁තාව	-4292
▁ව්‍යාපෘති	-4293
▁විද්‍යාලයේ	-4294
ාරත්න	-4295
ේය	-4296
▁අවුරුද්ද	-4297
▁සැලැ	-4298
දව	-4299
▁මොළ	-4300
▁අඛණ්ඩ	-4301
▁විටම	-4302
▁වූවා	-4303
..?	-4304
▁නොහැකිය	-4305
▁ඇල්ල	-4306
▁මයි	-4307
▁අතු	-4308
▁කියමින්	-4309
▁ඇත්	-4310
▁දන්නෙ	-4311
▁කාඩ්	-4312
ියාට	-4313
වරයාට	-4314
▁ඔයාල	-4315
.00	-4316
▁වර්තමානයේ	-4317
▁ගැටලුව	-4318
කිව	-4319
▁තුමා	-4320
▁තිබුනා	-4321
▁දාන	-4322
▁අන්තිමට	-4323
▁චිත්‍රපටය	-4324
▁පිටුප	-4325
රල්	-4326
ථි	-4327
▁විනාඩි	-4328
▁නැර	-4329
’’	-4330
▁සිරුර	-4331
සාරිස්	-4332
භව	-4333
▁වෙනස්කම්	-4334
අපි	-4335
▁ලබාදී	-4336
▁එහෙනම්	-4337
ිනී	-4338
ස්සු	-4339
▁ගියේය	-4340
▁අවස්ථාවේදී	-4341
▁පෙබරවාරි	-4342
▁ලැයිස්තුව	-4343
▁යුරෝප	-4344
කට්	-4345
▁ලබන්නේ	-4346
▁සංවිධානයේ	-4347
▁පානය	-4348
▁ජර්	-4349
▁කේන්ද්‍ර	-4350
▁උෂ්ණ	-4351
සූරිය	-4352
▁වො	-4353
▁ධුර	-4354
ියම්	-4355
නුව	-4356
▁දරුණු	-4357
බලා	-4358
තැන	-4359
▁ලබාගත්	-4360
▁නැගි	-4361
වෙන්	-4362
සො	-4363
වරයෙකු	-4364
▁කටයුතුව	-4365
▁ප‍්‍රධාන	-4366
▁විජය	-4367
▁යුද්ධය	-4368
▁සිසු	-4369
▁ඔක්තෝබර්	-4370
▁ආර්ථිකය	-4371
▁ස්වර	-4372
▁දෙමා	-4373
▁අපනය	-4374
▁සාකච්ඡාව	-4375
කයෝ	-4376
▁කන්	-4377
▁නායකයා	-4378
▁ක්‍රිය	-4379
තිහාසික	-4380
▁අනුපා	-4381
▁මද	-4382
▁මියගිය	-4383
▁ගලා	-4384
▁දයා	-4385
පුව	-4386
▁ඇත්නම්	-4387
▁තානාපති	-4388
▁Ar	-4389
▁හදන්න	-4390
▁පොරොන්දු	-4391
▁තාර	-4392
රූ	-4393
වනම්	-4394
▁භාෂාව	-4395
▁ස්ප	-4396
වාදීන්	-4397
▁වෙරළ	-4398
▁රසික	-4399
▁තරගාවලිය	-4400
▁දුරට	-4401
▁දෙන්නට	-4402
▁ජාවාර	-4403
‍්‍රම	-4404
▁මත්ද්‍රව්‍ය	-4405
ජිනේ	-4406
▁වට්ට	-4407
▁දිස්ත්‍රික්	-4408
▁ගෞරව	-4409
බො	-4410
▁සිටියදී	-4411
▁ධා	-4412
▁කකු	-4413
▁අවශ්‍යතාව	-4414
▁මාධ්‍යවේදී	-4415
ලනය	-4416
යන්හි	-4417
ල්ඩ්	-4418
▁ගුණාත්මක	-4419
▁අන්න	-4420
▁ටෙස්ට්	-4421
▁ස්වාධීන	-4422
▁නිරෝධා	-4423
වරයාගේ	-4424
ගොස්	-4425
▁විස්ස	-4426
සියාව	-4427
▁සහන	-4428
▁අබේ	-4429
▁ආපහු	-4430
ජීවී	-4431
▁ඓ	-4432
▁තෘ	-4433
▁ඉං	-4434
▁දේවා	-4435
සියානු	-4436
▁රාත්‍රී	-4437
▁ගසා	-4438
▁පෙරමුණේ	-4439
▁හින්දා	-4440
4)	-4441
▁උදෑ	-4442
▁දෙවි	-4443
▁යම	-4444
▁ආවරණය	-4445
▁i	-4446
ප්පා	-4447
▁රැඳී	-4448
ීනව	-4449
▁යනා	-4450
▁හරියටම	-4451
▁කෙනා	-4452
▁නොතිබ	-4453
▁ස්ථාවර	-4454
ද්‍යා	-4455
▁යමින්	-4456
▁වායු	-4457
▁අන්තර්ජාල	-4458
▁රඳවා	-4459
▁ජනමාධ්‍ය	-4460
▁බාහිර	-4461
▁ඒවායේ	-4462
▁දර්ශන	-4463
▁ඇල	-4464
කුණ	-4465
▁ඉල්ලීම	-4466
▁පැවර	-4467
▁තිබියදී	-4468
තැන්	-4469
▁එකක	-4470
ුල්	-4471
▁බලපෑමක්	-4472
▁X	-4473
▁සතියේ	-4474
▁බැලීම	-4475
▁කොමිෂන්	-4476
▁වන්ද	-4477
▁වද	-4478
▁දිගින්	-4479
▁තාක්ෂණික	-4480
▁ඇරඹ	-4481
▁post	-4482
▁වැරැ	-4483
සියාවේ	-4484
▁කරගැනීමට	-4485
▁නැරඹ	-4486
▁යෑම	-4487
▁සමූහ	-4488
▁ඒව	-4489
▁ඉඳලා	-4490
▁තමාට	-4491
වෙමින්	-4492
▁සත්කාර	-4493
▁ජවි	-4494
▁යතුරු	-4495
▁සාර	-4496
▁දෝ	-4497
▁ඇතුලත්	-4498
▁නිව්	-4499
▁මෙයින්	-4500
▁වසරේදී	-4501
▁Mar	-4502
▁චන්ද	-4503
.2	-4504
▁සරස	-4505
▁අරු	-4506
▁පැවසූ	-4507
ak	-4508
▁වුවහොත්	-4509
න්ත‍්‍ර	-4510
ලැ	-4511
ගන්නේ	-4512
දුන	-4513
▁වරදක්	-4514
කරුවන්ගේ	-4515
හාන්	-4516
▁රංගන	-4517
▁භාග්‍ය	-4518
▁සුවිශේෂී	-4519
▁ඇණ	-4520
▁මෙහෙයු	-4521
▁එමගින්	-4522
▁කම්ප	-4523
▁විමුක්ති	-4524
▁උද්ඝ	-4525
▁නිශ්චිත	-4526
▁රහිත	-4527
බව	-4528
▁කලාව	-4529
▁චින්	-4530
▁එකකට	-4531
ංග්	-4532
▁=	-4533
කලා	-4534
▁දඬුවම්	-4535
▁මාර්ගයේ	-4536
▁පිටු	-4537
▁කටයුත්ත	-4538
▁අනුමැතිය	-4539
▁ඇතුළත	-4540
▁වටිනාකම	-4541
නියා	-4542
▁සාම්ප	-4543
▁හැමදාම	-4544
බල්	-4545
▁තැන්පත්	-4546
▁වෙනකොට	-4547
කයෙකු	-4548
ැබ්	-4549
නං	-4550
▁තල	-4551
ජීව	-4552
▁එළඹ	-4553
▁තාප	-4554
දූ	-4555
▁සිව්	-4556
▁වේගයෙන්	-4557
▁ගං	-4558
▁දෝෂ	-4559
කාංග	-4560
▁උදෑසන	-4561
▁සිංහ	-4562
▁පුද්ගලයෙකු	-4563
▁සෙල්ලම්	-4564
ජාතික	-4565
▁තීන්	-4566
▁රං	-4567
▁අහෝ	-4568
▁විලා	-4569
5)	-4570
▁ලබාගෙන	-4571
▁කහ	-4572
▁මොවුන්	-4573
▁එමඟින්	-4574
▁කමෙන්ට්	-4575
▁පැහැර	-4576
▁අනුර	-4577
ත්‍රාත්	-4578
බඳු	-4579
ලස්	-4580
▁සේවාව	-4581
▁නට	-4582
▁ආදායම්	-4583
▁කිරීමත්	-4584
▁අද්	-4585
▁පොඩ්ඩක්	-4586
▁මොනවද	-4587
▁නිල්	-4588
▁දෙන්නා	-4589
කීය	-4590
▁නිදා	-4591
▁වතු	-4592
▁සේක	-4593
▁ජො	-4594
▁දේශනා	-4595
▁ඉන්දියානු	-4596
▁the	-4597
▁අකම	-4598
▁කියව	-4599
පිර	-4600
▁තත්වයක්	-4601
▁විශ්‍ර	-4602
▁සාපේක්ෂ	-4603
▁මින්	-4604
වලු	-4605
▁පදනම	-4606
ඔබ	-4607
▁මහේ	-4608
▁ප්‍රවාහ	-4609
▁නොහැක	-4610
ඟි	-4611
වීන්	-4612
චන	-4613
▁තීන්දු	-4614
▁භු	-4615
▁2010	-4616
▁විකුණ	-4617
▁පැවැස	-4618
▁විදුහ	-4619
ගේම	-4620
▁ප්‍රච	-4621
ොප්	-4622
▁ගර්	-4623
▁වීමත්	-4624
▁වළක්වා	-4625
▁පුහුණුව	-4626
▁ග්‍රන්ථ	-4627
ියෝ	-4628
▁පින්තූ	-4629
▁දෙකකට	-4630
දුණු	-4631
▁to	-4632
▁තත්ත්වයට	-4633
▁Re	-4634
▁උතුම්	-4635
▁අසරණ	-4636
බ්බ	-4637
anka	-4638
▁විශ්‍රාම	-4639
▁යළිත්	-4640
▁ජෙන	-4641
යාව	-4642
▁ග්‍රාම	-4643
▁අංශය	-4644
▁මැතිවරණය	-4645
නුත්	-4646
▁සිහින	-4647
▁වාඩි	-4648
▁හින	-4649
▁සුවඳ	-4650
▁සිහිපත්	-4651
▁ඉන්පසු	-4652
▁හුද	-4653
ce	-4654
▁ආනන්ද	-4655
▁Posted	-4656
▁ආරක්ෂිත	-4657
▁ගබඩා	-4658
▁අමාර	-4659
ම්ස්	-4660
වාගෙන	-4661
▁බැට	-4662
▁වරට	-4663
▁දවසක	-4664
▁දැක්වෙන	-4665
▁ඩය	-4666
රුවේ	-4667
කයෙක්	-4668
▁ප‍්‍රදේශ	-4669
▁පුවත්පත	-4670
▁සීමාව	-4671
▁සීනි	-4672
▁නොදන්නා	-4673
▁අතරම	-4674
▁අවස්ථාවට	-4675
▁වේලාව	-4676
▁th	-4677
▁In	-4678
▁දෙපාර්තමේන්තුවේ	-4679
ත්වයේ	-4680
රාදා	-4681
ධිකරණය	-4682
▁දැනගන්න	-4683
▁වැටී	-4684
▁සිසුව	-4685
▁නිලධාරිය	-4686
▁බළ	-4687
▁සමාව	-4688
▁අවස්	-4689
තරා	-4690
▁කොමසාරිස්	-4691
සුරුව	-4692
▁වින	-4693
හදා	-4694
▁ප්‍රේමදාස	-4695
▁එනිසා	-4696
▁01	-4697
▁ප්‍රදේශවල	-4698
▁ක්‍රමවේද	-4699
▁කෙතරම්	-4700
▁සංකීර්ණ	-4701
▁The	-4702
▁අනුරාධපුර	-4703
▁මීටර්	-4704
▁දැකිය	-4705
දින්න	-4706
ලිමත්	-4707
6)	-4708
දීමේ	-4709
ධර්ම	-4710
▁ළමයි	-4711
one	-4712
ආර	-4713
▁නවත	-4714
▁අතිරේක	-4715
ත්තන්	-4716
▁දර්ශනය	-4717
▁ඓතිහාසික	-4718
▁මහන්	-4719
▁උණ	-4720
▁සතුන්	-4721
▁නිවසට	-4722
▁පූර්ව	-4723
▁බත්	-4724
▁කවිය	-4725
▁ඔස	-4726
▁දෛ	-4727
යක්ෂම	-4728
▁ඉංජිනේ	-4729
ෝය	-4730
▁එකිනෙකා	-4731
-19	-4732
▁නිරන්තර	-4733
▁දියුණ	-4734
ාවේදී	-4735
▁සමහරු	-4736
▁ප්‍රතිපත්ත	-4737
▁කියැ	-4738
▁බලයට	-4739
හිය	-4740
▁භෞ	-4741
▁ගෙවල්	-4742
▁නොක	-4743
▁අදටත්	-4744
▁උදාහරණයක්	-4745
▁වැඩපිළිවෙළ	-4746
▁කෝටි	-4747
▁නිරීක්ෂණය	-4748
▁පුද	-4749
▁පෙනු	-4750
කුරු	-4751
▁ආන්ඩ	-4752
වුඩ	-4753
▁සොහො	-4754
▁ගම්ප	-4755
▁ලබාගත	-4756
ංසක	-4757
▁සොය	-4758
ෝගී	-4759
ම්බර	-4760
▁අවස්ථාවල	-4761
▁හයි	-4762
ard	-4763
▁චැ	-4764
▁දරුවන්ගේ	-4765
▁ඇතුළුව	-4766
▁සැළ	-4767
▁හීන	-4768
ළුවක්	-4769
▁පත්වූ	-4770
▁කරුණක්	-4771
▁ආරාධනා	-4772
වනේ	-4773
▁ඕස්ට්‍රේ	-4774
▁වගකිව	-4775
ක්ඛ	-4776
ධිය	-4777
▁මෝඩ	-4778
▁ස්ථාපිත	-4779
▁ශුද්ධ	-4780
▁වේගවත්	-4781
▁පාස්කු	-4782
▁භූම	-4783
මාන්	-4784
▁පං	-4785
පළ	-4786
▁සේවයේ	-4787
▁පුත්‍ර	-4788
▁පවත්වන	-4789
▁කැට	-4790
ස්ත්‍ර	-4791
▁යන්නෙ	-4792
▁කවුරුත්	-4793
රුවක්	-4794
▁මල්ල	-4795
▁අණ	-4796
භූ	-4797
▁අඩි	-4798
▁අමාත්‍යාංශයේ	-4799
▁කි‍්‍ර	-4800
▁ආකර්	-4801
▁පොලිසියට	-4802
▁පහු	-4803
▁අසු	-4804
,,	-4805
▁උග	-4806
ඵලය	-4807
යිල්	-4808
▁07	-4809
▁කළමනාකරණය	-4810
ටල්	-4811
▁ඉරිදා	-4812
▁න්‍යා	-4813
▁මෘදුකාංග	-4814
▁වඩ	-4815
▁St	-4816
ිකාවක්	-4817
▁කොතරම්	-4818
▁තියෙනව	-4819
තව	-4820
▁රසායනික	-4821
▁60	-4822
▁ඔයාගේ	-4823
▁හැකිද	-4824
▁ඔහුව	-4825
ala	-4826
වත්ත	-4827
▁නඩුව	-4828
▁වාසනාව	-4829
කුගේ	-4830
▁පැත්තට	-4831
▁කාරක	-4832
▁ගිවිසුම	-4833
▁පාකි	-4834
▁සිතිය	-4835
▁ක්‍රියාකාරකම්	-4836
▁නැං	-4837
ක්‍ය	-4838
වංශ	-4839
තන්	-4840
▁කීර්	-4841
හෙන්	-4842
▁වැසි	-4843
▁විටත්	-4844
▁සාමාජිකයන්	-4845
▁පරීක්ෂණය	-4846
▁කණ්ඩායමට	-4847
▁No	-4848
▁ප්‍රවාහන	-4849
▁උත්සහ	-4850
කයන්ගේ	-4851
වහන්සේ	-4852
▁අනුකූල	-4853
▁කමිටුව	-4854
2)	-4855
▁ද්වි	-4856
▁ඇතුලු	-4857
▁සිදුවන්නේ	-4858
▁බිම්	-4859
▁ගති	-4860
▁සුදුසුකම්	-4861
▁බෝධ	-4862
ගාමී	-4863
▁කොහො	-4864
▁ඕනි	-4865
ර්ස්	-4866
▁එයාට	-4867
පුරුදු	-4868
ිකයන්	-4869
▁කාව	-4870
ඒත්	-4871
▁ඩු	-4872
▁වේදනාව	-4873
▁යේ	-4874
▁ලිපියේ	-4875
▁+	-4876
ාත්	-4877
වේදන	-4878
▁ලැබීය	-4879
▁ජයවර්ධන	-4880
▁සංවේදී	-4881
▁දෙසට	-4882
ගනි	-4883
:00	-4884
▁විකාශ	-4885
තෙක්	-4886
▁අත්ව	-4887
▁ලෙසයි	-4888
▁ජූලි	-4889
දායික	-4890
▁බරපතළ	-4891
ish	-4892
▁විසඳුම්	-4893
▁හෙතෙම	-4894
▁වචනය	-4895
▁පාර්ශ්ව	-4896
▁එයාල	-4897
▁අකුරු	-4898
කරන්න	-4899
▁03	-4900
නස්	-4901
▁ස්ක	-4902
▁ස්වභාව	-4903
▁පිළිකා	-4904
▁වැඩිදුර	-4905
▁ඇපල්	-4906
▁ජවිපෙ	-4907
1)	-4908
▁05	-4909
▁ඇඳු	-4910
▁කියවන	-4911
▁අවාස	-4912
▁පරිසරය	-4913
▁කාර්යාලයේ	-4914
▁රාව	-4915
▁බඳු	-4916
හාස	-4917
ැසි	-4918
tt	-4919
▁හිතට	-4920
▁පැමිණිලි	-4921
වූයේ	-4922
▁කැමතියි	-4923
▁ගැහැණු	-4924
▁යොමුව	-4925
ල්ලෙන්	-4926
▁මැදිහත්	-4927
පාද	-4928
▁මොකක්	-4929
▁සරණ	-4930
▁බාධා	-4931
▁සැඟ	-4932
වාන්	-4933
සැල්	-4934
▁ශු	-4935
▁බන්	-4936
▁කතන්දර	-4937
▁කීවා	-4938
▁හිතනවා	-4939
▁ආයෝජන	-4940
▁භාෂා	-4941
8)	-4942
▁රජතුමා	-4943
▁සංචාරය	-4944
▁ජෙ	-4945
▁ගෑස්	-4946
▁අර්ධ	-4947
▁හරිය	-4948
▁කරු	-4949
▁හෘද	-4950
ලොව	-4951
▁ශාක	-4952
▁සංස්ථ	-4953
▁නිදහ	-4954
▁කාලීන	-4955
▁සංකේ	-4956
▁වෙද්දී	-4957
▁කොන්දේසි	-4958
ටින්	-4959
▁ශබ්ද	-4960
▁පැත්තේ	-4961
▁කිරීමටත්	-4962
▁වැඩියෙන්	-4963
▁පිළිබදව	-4964
▁අඩවියේ	-4965
▁කළත්	-4966
▁සෙනෙ	-4967
▁මිලි	-4968
▁හුරු	-4969
▁වර්ගයේ	-4970
▁ඇහ	-4971
වරුවේ	-4972
ගමුව	-4973
ිනු	-4974
සිනෝ	-4975
▁බුදුන්	-4976
?”	-4977
▁එවකට	-4978
▁හත	-4979
රුවන්	-4980
▁අහෝසි	-4981
▁ප්‍රකාශය	-4982
▁st	-4983
▁Aug	-4984
ඟු	-4985
▁හඳුන්	-4986
▁ළඟා	-4987
▁ස්වභාවය	-4988
▁හිතෙනවා	-4989
▁ඉකුත්	-4990
▁සැන	-4991
▁දායකත්වය	-4992
▁මෙරටට	-4993
ාමය	-4994
යකදී	-4995
▁පීඩනය	-4996
ff	-4997
▁නිවාඩු	-4998
▁වෙති	-4999
වාදයට	-5000
▁මොනවාද	-5001
▁ප්‍රදර්ශනය	-5002
▁තොග	-5003
▁ඒවාට	-5004
▁තමු	-5005
▁වනදා	-5006
▁නායකයන්	-5007
රාජ	-5008
▁තවම	-5009
▁උල්ල	-5010
▁ස්වාමීන්	-5011
න්ම	-5012
▁පස්ස	-5013
▁ප්‍රහාරය	-5014
▁ජීවිතයට	-5015
▁මුර	-5016
වෙනවා	-5017
▁කාණ්ඩ	-5018
▁පරමා	-5019
සුදු	-5020
up	-5021
▁පරිප	-5022
▁@	-5023
▁නැගී	-5024
▁1,	-5025
නමුත්	-5026
▁පවසනවා	-5027
▁කිහිපයකට	-5028
▁ප්‍රාර්ථ	-5029
▁වඩාත්ම	-5030
ායෝගික	-5031
▁පද්ධති	-5032
▁ළමය	-5033
තයක්	-5034
ss	-5035
▁ක්ලික්	-5036
▁දත්	-5037
ine	-5038
▁තාවකාල	-5039
ly	-5040
▁පාරේ	-5041
▁හාන	-5042
▁පැවැත්ම	-5043
▁නිහඬ	-5044
▁ඉප	-5045
▁අවංක	-5046
▁ගැටල	-5047
▁පැවැත්	-5048
ණීය	-5049
ack	-5050
▁සතුටින්	-5051
7)	-5052
▁ශක්	-5053
▁කාලයේදී	-5054
ියෙ	-5055
▁විදිය	-5056
▁ප්‍රකාශයක්	-5057
▁අනාගතය	-5058
සයේ	-5059
▁බලධාරීන්	-5060
▁කැසිනෝ	-5061
ම්බා	-5062
▁නරඹ	-5063
ීකරණය	-5064
▁කඳවු	-5065
▁හාමුදුරුව	-5066
▁රත්න	-5067
දහන්	-5068
▁රත්නායක	-5069
▁අතරට	-5070
oc	-5071
▁and	-5072
▁දැනෙන	-5073
තිලක	-5074
කර්	-5075
සුස්	-5076
ril	-5077
ත්තම	-5078
පත්ව	-5079
▁රී	-5080
▁ෆොන්	-5081
▁විටෙක	-5082
ස්තියා	-5083
▁ආශ්‍රිත	-5084
▁ඥ	-5085
්‍රො	-5086
▁මාළු	-5087
ට්ඨ	-5088
▁දූෂණ	-5089
▁ගහන්න	-5090
▁යෑමට	-5091
වරිය	-5092
▁නෙමේ	-5093
ිරිස්	-5094
ජාණන්	-5095
▁චීනයේ	-5096
▁හින්ද	-5097
න්ස්	-5098
▁ලැබුවේ	-5099
▁කොල	-5100
▁කැපී	-5101
▁මහණ	-5102
▁විමල්	-5103
විද	-5104
▁එන්නත	-5105
▁සැහැ	-5106
▁නමක්	-5107
▁සනා	-5108
▁පැල	-5109
▁අතිශය	-5110
▁ශරීරය	-5111
▁සඳු	-5112
▁පැහැදිලිව	-5113
▁එක්කම	-5114
▁විද්‍යුත්	-5115
▁පෙම්ව	-5116
▁ඉල්ලීමක්	-5117
▁ජනප	-5118
▁දූෂණය	-5119
▁මධ්‍යස්ථානය	-5120
දෑ	-5121
▁අත්ත	-5122
▁විස්	-5123
▁කෙලින්	-5124
▁යුධ	-5125
▁බැගින්	-5126
▁හිතෙන	-5127
▁නියා	-5128
▁ස්වාභාවික	-5129
▁විරෝධතා	-5130
▁ගුණවර්ධන	-5131
▁සම්බන්ධතා	-5132
ගතව	-5133
▁බැස	-5134
▁වංචා	-5135
▁කැන	-5136
▁පති	-5137
▁August	-5138
▁පසුබිම	-5139
▁ආලේ	-5140
▁ක්රියා	-5141
▁හුවමාරු	-5142
▁සැපයුම්	-5143
▁කිරිම	-5144
▁comments	-5145
▁පන්ති	-5146
ධිකරණ	-5147
▁විනය	-5148
▁නිතරම	-5149
▁අහිංසක	-5150
▁අනවශ්‍ය	-5151
යන්ත	-5152
▁සබඳතා	-5153
▁සමත්ව	-5154
▁ගඟ	-5155
▁ඉගැන්	-5156
මල්	-5157
▁ෆිල්	-5158
න්ය	-5159
▁සේවක	-5160
▁නිසැ	-5161
▁වෙලාවේ	-5162
ර්ථක	-5163
▁වෙද	-5164
▁වදාළ	-5165
▁දවස්වල	-5166
9)	-5167
▁ව්‍යාජ	-5168
▁උපාධි	-5169
▁ඉඩක්	-5170
▁රාම	-5171
▁දෙකට	-5172
වෙල	-5173
▁වේගය	-5174
▁අමත	-5175
▁Ch	-5176
ath	-5177
▁කෙරි	-5178
▁ඩ්‍ර	-5179
▁ලේඛන	-5180
▁ආදර්ශ	-5181
▁නිවෙ	-5182
▁පවුල	-5183
▁වසංගතය	-5184
▁චු	-5185
ver	-5186
▁වාසය	-5187
▁අන්තර්ජාලය	-5188
යිස්	-5189
න්තොට	-5190
ංඝ	-5191
▁දහම	-5192
▁රාජපක්‍ෂ	-5193
▁අධ්‍යයනය	-5194
▁ආසාදනය	-5195
▁පුලුව	-5196
ect	-5197
▁ඉවස	-5198
▁ගූ	-5199
▁අජිත්	-5200
▁ගැඹුරු	-5201
▁කාර්යය	-5202
▁ඉදිකිරීම්	-5203
▁වාර්ෂික	-5204
▁ඉතුරු	-5205
▁අඩුම	-5206
▁බලපත්‍ර	-5207
ඩින්	-5208
▁පවරා	-5209
▁ෙ	-5210
▁තැනට	-5211
න්දා	-5212
මතු	-5213
දිම	-5214
▁සමාජයට	-5215
බෑ	-5216
▁පරීක්ෂක	-5217
▁ගාල්ල	-5218
▁ඉතාල	-5219
ව්ය	-5220
පැල්	-5221
▁දිව	-5222
ඔය	-5223
ල්පති	-5224
▁පරාජ	-5225
▁අපිත්	-5226
▁බැලූ	-5227
▁කොහෙද	-5228
▁උව	-5229
▁දමන	-5230
▁භෞතික	-5231
▁කරගැනීම	-5232
▁හැඟීම්	-5233
ංගා	-5234
එහෙ	-5235
▁ස්ථාපනය	-5236
▁යටි	-5237
▁ආයෙ	-5238
විල	-5239
▁චා	-5240
▁ගොඩනැග	-5241
▁මහේස්	-5242
▁පොලිස්පති	-5243
▁ආගම්	-5244
▁දරුවාගේ	-5245
▁කාලගුණ	-5246
▁ආහාරයට	-5247
▁අගමැතිවරයා	-5248
මේදී	-5249
▁සැපයීම	-5250
▁අධිරා	-5251
කිරි	-5252
▁ස්වර්	-5253
▁නවතම	-5254
une	-5255
▁බලකා	-5256
▁ආයෙත්	-5257
▁ඍ	-5258
▁ප්‍රතිලාභ	-5259
▁අනික්	-5260
▁හිනා	-5261
▁ලෙසද	-5262
▁පොතේ	-5263
▁a	-5264
ද්දා	-5265
▁කලක්	-5266
▁පැතුම්	-5267
▁ස්තූතියි	-5268
▁වාසිය	-5269
▁උපුටා	-5270
▁ප්‍රදේශය	-5271
▁නිලධාරින්	-5272
▁ලැබුණ	-5273
▁02	-5274
තත්	-5275
▁නිශ්	-5276
ure	-5277
▁බේර	-5278
▁කුමන්ත්‍ර	-5279
ජර්	-5280
එම්	-5281
▁සියල්ලම	-5282
ලනි	-5283
▁ස්ථිර	-5284
මින්ද	-5285
හක	-5286
▁සාදා	-5287
▁යථාර්ථ	-5288
▁කාර්යක්ෂම	-5289
ණිජ	-5290
▁තෑ	-5291
▁නොපෙන	-5292
ජනක	-5293
කරුවා	-5294
▁ගැලපෙන	-5295
එල්	-5296
▁ගහන	-5297
▁අමෙර	-5298
▁ගස	-5299
▁පහල	-5300
ඒක	-5301
පතක්	-5302
▁නැතහොත්	-5303
ෛල	-5304
සේකා	-5305
▁සැකකරු	-5306
▁අලංකාර	-5307
ind	-5308
▁කිව්වොත්	-5309
පාලනය	-5310
▁ප්‍රාන්ත	-5311
වුන	-5312
වරයෙක්	-5313
ශි	-5314
▁කිසිසේ	-5315
ලුම්	-5316
▁ඩෙ	-5317
▁නවීන	-5318
▁මෙවල	-5319
▁දිරි	-5320
ඩාව	-5321
මෙම	-5322
ID	-5323
සඳ	-5324
▁යාවත්	-5325
ිකාවට	-5326
න්නන්	-5327
▁කුසල	-5328
▁ට්	-5329
▁පාර්ලිමේන්තුවට	-5330
ඩන්	-5331
▁නිසාත්	-5332
▁හදවත	-5333
▁පුරාවි	-5334
▁වෙනව	-5335
▁විදුලිය	-5336
▁නෞ	-5337
▁නැව්	-5338
▁අවබෝධයක්	-5339
▁පිවිස	-5340
▁දන්	-5341
▁මදි	-5342
සුමක්	-5343
▁ගැනි	-5344
▁08	-5345
▁උන්න	-5346
▁යානා	-5347
▁පුරාම	-5348
▁පච්ච	-5349
ශාන්ත	-5350
ඩේ	-5351
රුවට	-5352
▁පිටි	-5353
▁රථය	-5354
▁පණිවුඩ	-5355
▁සාපේක්ෂව	-5356
▁එවුන්	-5357
▁සේවාවන්	-5358
ිතාව	-5359
ඛා	-5360
▁කඩේ	-5361
▁ලැබුණා	-5362
න්හි	-5363
▁පළාතේ	-5364
,"	-5365
▁06	-5366
▁මිලට	-5367
▁ධාවනය	-5368
▁ගණනාව	-5369
ෂය	-5370
ලිත්	-5371
if	-5372
▁සිරු	-5373
▁හවුල්	-5374
▁උන්ට	-5375
ගන්නවා	-5376
▁නුවණ	-5377
රීම්	-5378
▁හිතන	-5379
▁බැසිල්	-5380
▁බලලා	-5381
▁දේශපාලනඥ	-5382
▁නැත්තේ	-5383
▁කිරිමට	-5384
▁දෙකක	-5385
▁හැමෝ	-5386
▁කිව්වෙ	-5387
▁ලිපියට	-5388
ගරික	-5389
▁සීත	-5390
▁ක්ෂේත්‍රයේ	-5391
▁සවස	-5392
නයේදී	-5393
▁දන්වා	-5394
ජුව	-5395
▁පිස්සු	-5396
▁සතර	-5397
▁අතහැර	-5398
▁sa	-5399
යටත්	-5400
▁අදිය	-5401
▁විද්‍යාලය	-5402
▁අත්හදා	-5403
▁සූර්	-5404
▁බැන	-5405
▁තරගාවලියේ	-5406
▁ලබාදුන්	-5407
▁පෘථි	-5408
රක්	-5409
▁පෝෂණය	-5410
▁ප්‍රවී	-5411
▁ලින්	-5412
වරක්	-5413
ග්ග	-5414
▁සැමියා	-5415
▁අර්බුදය	-5416
▁මාතර	-5417
▁ආලේප	-5418
▁බුදුරජාණන්	-5419
▁තීරණයක්	-5420
▁වැඩිහිටිය	-5421
▁කියන්නට	-5422
▁විකිණ	-5423
▁දෙනකු	-5424
▁ඉවත	-5425
▁දහම්	-5426
▁ලැබුණේ	-5427
▁නැතැයි	-5428
▁කවදා	-5429
▁එකල	-5430
▁තමන්ගෙ	-5431
▁අයෙකු	-5432
හිට	-5433
▁ෆ්	-5434
▁ප්‍රතිශ	-5435
ණයේ	-5436
ලීම	-5437
ුවෙ	-5438
▁ඒමට	-5439
▁නොවීම	-5440
▁විදේශීය	-5441
▁භයා	-5442
▁අතුරුදහන්	-5443
▁චරිතයක්	-5444
මිතය	-5445
▁මරණයට	-5446
▁භූමිය	-5447
▁04	-5448
▁ශරීරයේ	-5449
▁උල්ලංඝ	-5450
▁ප්‍රතිසංස්	-5451
▁සමාලෝ	-5452
▁e	-5453
▁ව්‍යාප්ත	-5454
▁මන්දිර	-5455
▁ප්‍රායෝගික	-5456
ity	-5457
▁අවදානම	-5458
▁නොත	-5459
▁ස්ත්‍රී	-5460
▁විදුහල්පති	-5461
▁පරීක්ෂ	-5462
▁ලියූ	-5463
▁චතුර	-5464
▁කළාය	-5465
ess	-5466
▁වෑ	-5467
මයක්	-5468
▁දිස්ත්‍රික්කයේ	-5469
▁නාමය	-5470
▁ගැහැන	-5471
▁මනස	-5472
▁පිටුපස	-5473
▁පැත්තෙන්	-5474
▁මොහු	-5475
දැන්	-5476
▁ටො	-5477
ඳින	-5478
▁උපාය	-5479
▁සංඛ්‍යාවක්	-5480
▁හම්බන්තොට	-5481
▁උඩු	-5482
▁කාන්තාවක්	-5483
▁Y	-5484
▁....	-5485
රියාව	-5486
▁මැතිතුමා	-5487
--	-5488
▁අන්තිම	-5489
▁විනිසුරු	-5490
.4	-5491
▁මිනිහ	-5492
▁අඹ	-5493
රුණා	-5494
▁පන්ද	-5495
▁පරිභ	-5496
.3	-5497
▁දැමූ	-5498
▁දශක	-5499
▁රාජධාන	-5500
▁මෙච්චර	-5501
▁මැදිහත්ව	-5502
▁බැර	-5503
▁විප්ලව	-5504
ලිත	-5505
▁උඹට	-5506
ංසා	-5507
▁́	-5508
▁ආණ්ඩුක්‍රම	-5509
▁කෞ	-5510
▁වහන්සේලා	-5511
යෙකුට	-5512
▁ජිවිත	-5513
▁මිතුරන්	-5514
▁සංග්‍රහ	-5515
▁අධිකාරිය	-5516
පැන්	-5517
▁අයින්	-5518
▁ප්‍රමි	-5519
▁රුවන්	-5520
▁ආත	-5521
▁සැකකරුවන්	-5522
▁ජනාධිපතිවරණය	-5523
ෂාන්	-5524
▁ප්‍රශ	-5525
▁සාර්ථකව	-5526
▁එම්	-5527
වාර	-5528
▁r	-5529
▁ප්ලාස්	-5530
▁දැන්වීම්	-5531
▁මන්ත්‍රීවරුන්	-5532
පාක	-5533
og	-5534
ත්මික	-5535
▁විභා	-5536
▁සේවකයින්	-5537
▁ජෝන්	-5538
▁ව්‍යවස්ථාව	-5539
▁ශ්‍රේෂ්ඨා	-5540
▁උතුරේ	-5541
▁යුගයේ	-5542
▁කියලත්	-5543
ේදය	-5544
▁අඳු	-5545
▁වීමයි	-5546
▁සහකාර	-5547
මාල්	-5548
▁මේකට	-5549
▁හමුදාවේ	-5550
▁ඇන්ඩ	-5551
▁කලාපයේ	-5552
ෙක්ට	-5553
▁වහන්සේට	-5554
▁අක්කා	-5555
▁සපයන	-5556
▁ස්ථානයට	-5557
▁සනාථ	-5558
▁සම්මානය	-5559
කුල	-5560
▁භාවය	-5561
▁ඔර	-5562
▁ඔවුනට	-5563
▁පාලක	-5564
▁නියමිතය	-5565
▁බැලිය	-5566
▁බොහොමයක්	-5567
▁හඳුනාගෙන	-5568
▁ගාමි	-5569
ෑගල	-5570
ගොල්ල	-5571
▁විනෝද	-5572
▁මුහුණු	-5573
▁විසිනි	-5574
▁ඉඩකඩ	-5575
▁පන්තිය	-5576
▁ආයුධ	-5577
▁ස්වභාවික	-5578
▁තීන්දුව	-5579
▁එලියට	-5580
▁කර්මාන්තය	-5581
our	-5582
▁ගවේ	-5583
▁උර	-5584
▁පාසල	-5585
▁ඩේ	-5586
▁දාගෙන	-5587
▁මෑතක	-5588
▁දරුවාට	-5589
තුමන්	-5590
පරි	-5591
පොල	-5592
ශක	-5593
▁සබැ	-5594
▁මිනිස	-5595
▁සිටම	-5596
▁පමන	-5597
දරව්	-5598
▁රසවත්	-5599
දෙව්	-5600
▁අනන්‍ය	-5601
කගේ	-5602
ang	-5603
ාංග	-5604
▁සේම	-5605
▁සේන	-5606
කරමින්	-5607
▁ප්‍රජාව	-5608
▁තැපැල්	-5609
▁පැවත	-5610
▁ඇතුල්	-5611
▁ලෑ	-5612
▁අවාසනාව	-5613
▁නළ	-5614
▁අමුද්‍රව්‍ය	-5615
ආර්	-5616
▁ප්‍රමාද	-5617
▁සිනා	-5618
▁තාක්‍ෂ	-5619
ide	-5620
▁එක්තරා	-5621
▁ෆොන්සේකා	-5622
▁අතුර	-5623
▁ඉස්ලාම්	-5624
▁පාඩම්	-5625
▁වනාන්තර	-5626
ණේ	-5627
▁නීතිමය	-5628
ග‍්‍ර	-5629
කාරයෙන්	-5630
නාම	-5631
▁යාපනය	-5632
▁ගොදුරු	-5633
▁ප්‍රසන්න	-5634
▁උපයෝග	-5635
▁පොදුජන	-5636
▁අධී	-5637
ආරච්චි	-5638
න්නෙමු	-5639
පයක්	-5640
▁සිංග	-5641
ඹුර	-5642
▁දැම්ම	-5643
▁35	-5644
▁මෙතැන	-5645
පිල	-5646
හැකි	-5647
දියුණු	-5648
▁තියාගෙන	-5649
▁උත්සවය	-5650
▁කැඳවා	-5651
▁වැටි	-5652
-0	-5653
ජිටල්	-5654
▁බලයක්	-5655
▁ගැටුම්	-5656
▁ඒකක	-5657
▁සිතුවිලි	-5658
▁අමුතු	-5659
▁හැරීම	-5660
▁කළොත්	-5661
▁නාගරික	-5662
▁ලබාගැනීමට	-5663
දීන්	-5664
▁වාර්තාවක්	-5665
▁සූදාන	-5666
ීන්ට	-5667
ගාරය	-5668
ශය	-5669
▁අතිශයින්	-5670
▁70	-5671
දිංච	-5672
ුල	-5673
▁ලක්ව	-5674
▁දිනකට	-5675
▁යවන්න	-5676
▁ලෝකයට	-5677
▁මන්ත්‍රීවරයා	-5678
▁ඉල්ලීම්	-5679
▁මිසක්	-5680
▁වතාවක්	-5681
▁දිනපතා	-5682
ෙදි	-5683
▁පව්	-5684
▁තෝර	-5685
▁කිහිපයක	-5686
▁දිවයින	-5687
▁ප්‍රේක්ෂ	-5688
▁පාව	-5689
▁රාශියක්	-5690
▁අසාර්ථක	-5691
▁කළමනාකරණ	-5692
ෙනුත්	-5693
▁‘‘	-5694
▁වසන්ත	-5695
▁යෙදී	-5696
▁March	-5697
▁හඳුන්ව	-5698
▁ඉක්මවා	-5699
ුවන්ගේ	-5700
▁යාන්ත්‍ර	-5701
ory	-5702
බ්‍ර	-5703
▁රුසියානු	-5704
▁පට්ට	-5705
සංග	-5706
▁කාර්මික	-5707
පල්	-5708
▁ක්‍	-5709
▁කාලා	-5710
▁සැලකිල්ලට	-5711
▁මවු	-5712
ලන්තය	-5713
▁ප්‍රධානත්වයෙන්	-5714
▁යෙද	-5715
▁කුසලාන	-5716
▁කවුන්	-5717
▁න්	-5718
▁ගමනා	-5719
▁අධිපති	-5720
▁වල්	-5721
▁සුනිල්	-5722
ප්ත	-5723
▁සිදුවී	-5724
▁බල්ල	-5725
▁දැක්වීම	-5726
▁වගකීම්	-5727
▁අංකය	-5728
▁ආනයනය	-5729
are	-5730
▁June	-5731
▁පුවත්පත්	-5732
▁චාර	-5733
▁පරපුර	-5734
▁සංවිධායක	-5735
▁ඉවත්ව	-5736
▁ගෙදරට	-5737
▁කුරුණ	-5738
යර්	-5739
▁මුහුද	-5740
▁//	-5741
ලාදේශ	-5742
රීම	-5743
▁බලන්	-5744
▁පුද්ගලයකු	-5745
▁එහෙමත්	-5746
aw	-5747
▁සංයු	-5748
▁එද	-5749
▁වැටෙන	-5750
▁භුක්ති	-5751
...?	-5752
▁ගියාම	-5753
▁ගෞරවය	-5754
▁සාමය	-5755
තුරා	-5756
ry	-5757
▁සාද	-5758
▁හැරී	-5759
▁මතකය	-5760
▁ආසියානු	-5761
▁බර්	-5762
▁ජෙනරාල්	-5763
▁කලබල	-5764
▁භයානක	-5765
▁Dec	-5766
▁යකඩ	-5767
▁2,	-5768
▁අසී	-5769
▁නැතත්	-5770
ගනු	-5771
▁ගෙවා	-5772
▁නාමල්	-5773
න්නම්	-5774
▁මැඩ	-5775
්බා	-5776
▁මෙන	-5777
▁නූතන	-5778
▁තත්වයන්	-5779
කාරිත්වය	-5780
ook	-5781
▁සංඛ්‍යා	-5782
all	-5783
▁ට්‍රම්ප්	-5784
▁තියනව	-5785
වීය	-5786
▁යානය	-5787
▁දීමේ	-5788
▁09	-5789
මති	-5790
▁අයෙක්	-5791
එය	-5792
▁විනිශ්ච	-5793
වර්ධනය	-5794
▁සේවයට	-5795
▁ලැබිය	-5796
▁සමාජවාදී	-5797
▁ශ්	-5798
▁පහක්	-5799
▁ලයි	-5800
▁Jul	-5801
▁හතරක්	-5802
▁ස්තුතියි	-5803
ධන	-5804
▁196	-5805
▁අඛණ්ඩව	-5806
▁බලශක්ති	-5807
දිතය	-5808
වැත්ව	-5809
▁ඩිජිටල්	-5810
▁මිනිස්සුන්ට	-5811
▁තැබීම	-5812
▁සහල්	-5813
▁කියවා	-5814
න්ධි	-5815
▁ගැළ	-5816
▁දැවී	-5817
▁චිත්ත	-5818
▁දෙමව්	-5819
එන්	-5820
▁ක්රීඩා	-5821
ඩො	-5822
රව්ය	-5823
▁සටහනක්	-5824
▁සර්ව	-5825
▁රක්ෂිත	-5826
▁රෝහලට	-5827
▁සටන	-5828
▁පොතක්	-5829
▁බස්නා	-5830
▁සංස	-5831
ටුවක්	-5832
▁සිදුවේ	-5833
▁තිස්ස	-5834
පයා	-5835
▁නිරූපණය	-5836
▁කිලෝමීට	-5837
යක්ද	-5838
▁තර්ක	-5839
▁සූර්ය	-5840
▁මහර	-5841
ටයි	-5842
පික්	-5843
▁යෙදෙන	-5844
ලිස්	-5845
▁තත්ත්වයන්	-5846
▁කියෙ	-5847
▁ගියොත්	-5848
ඟා	-5849
▁පිති	-5850
▁හානියක්	-5851
▁පිං	-5852
▁තරගයේ	-5853
▁යන්නයි	-5854
▁පන්තියේ	-5855
▁කුරුණෑගල	-5856
▁මිනිසුන්ට	-5857
▁පැවැත්වූ	-5858
▁බූ	-5859
▁ප්‍රී	-5860
ත්වල	-5861
▁දුරකථනය	-5862
▁මුඛ	-5863
▁ගිණුම්	-5864
▁ජනගහ	-5865
10	-5866
▁වෙලාවක්	-5867
▁පැවැසීය	-5868
▁නවා	-5869
▁වාණිජ	-5870
▁ශ්‍රි	-5871
කෝන්	-5872
gle	-5873
▁විසඳුමක්	-5874
▁දැනගෙන	-5875
▁නිළධාර	-5876
▁සකසා	-5877
▁April	-5878
▁ආදරණීය	-5879
▁අඩුපා	-5880
▁බ්‍රා	-5881
▁කරුණාකර	-5882
▁චෝදනාව	-5883
▁නොපැ	-5884
▁හිතන්නෙ	-5885
▁නංගි	-5886
▁ශාන්ත	-5887
▁රවී	-5888
▁යෙදුම්	-5889
ෙකට	-5890
▁කර්ම	-5891
▁එළව	-5892
▁පශ්ච	-5893
▁නියැ	-5894
▁චක්‍ර	-5895
▁ප්‍රකාශක	-5896
▁නිසැක	-5897
තියෙන්	-5898
▁පෙල	-5899
▁පසුපස	-5900
▁පවත්නා	-5901
▁සමගම	-5902
ies	-5903
ttp	-5904
▁මන්ත	-5905
දේව	-5906
▁ආසන	-5907
▁අත්පත්	-5908
ාප්	-5909
ත්තල	-5910
▁කොපමණ	-5911
▁පාරක්	-5912
▁ක්‍රීඩාව	-5913
මගේ	-5914
▁තෙර	-5915
▁අහිත	-5916
▁සිතේ	-5917
▁පිටතට	-5918
▁උනාට	-5919
ලියේ	-5920
▁චූ	-5921
▁ලූ	-5922
▁said	-5923
▁යෙදු	-5924
▁තේරු	-5925
ලයින්	-5926
▁ස්වරූප	-5927
▁සෙබ	-5928
රිලා	-5929
▁වගකීමක්	-5930
▁දෙනෙකුට	-5931
▁බැංකුවේ	-5932
▁ගමනක්	-5933
▁මත්පැන්	-5934
▁500	-5935
▁දොස්තර	-5936
▁යහපාලන	-5937
▁තියෙන්න	-5938
වස්	-5939
▁කලාපය	-5940
▁ශූර	-5941
▁වැළඳ	-5942
▁සතුටක්	-5943
▁සියළුම	-5944
▁පහත්	-5945
▁ඉදිකර	-5946
▁අබ	-5947
▁මෑත	-5948
▁දකින්නට	-5949
▁භාග්‍යවතුන්	-5950
▁ප්‍ර‍	-5951
▁බස්නාහිර	-5952
▁මධ්‍යස්ථාන	-5953
▁නිවැරදිව	-5954
▁කෘති	-5955
▁ගම්පහ	-5956
▁මගෙන්	-5957
▁ඔට්ටු	-5958
▁යාළුව	-5959
▁Th	-5960
▁දෛනික	-5961
▁ගහලා	-5962
▁ෆිල්ම්	-5963
▁මචං	-5964
▁ඇතිකර	-5965
නල්	-5966
▁විවේචනය	-5967
විල්ල	-5968
▁බිත්තර	-5969
▁#	-5970
tion	-5971
▁ප්‍රාර්ථනා	-5972
▁විශාලතම	-5973
▁මරු	-5974
▁අහස	-5975
▁මූලා	-5976
▁සුද්ද	-5977
▁ඉහළම	-5978
▁වස්තුව	-5979
▁ගෙවන	-5980
ත්තිය	-5981
කාරක	-5982
▁ආණ්ඩුවක්	-5983
▁අපනයන	-5984
▁හැඟීම	-5985
▁res	-5986
▁වයිර	-5987
ud	-5988
ile	-5989
▁කරණ	-5990
▁ඉරණ	-5991
▁පන්දුව	-5992
▁ශීත	-5993
▁යත්	-5994
▁ආකල්ප	-5995
▁පරිභෝජ	-5996
▁ඉදිරිපිට	-5997
▁උද්ඝෝ	-5998
▁යාලුව	-5999
▁අහල	-6000
▁අක්ක	-6001
කරුවෙකු	-6002
ැම	-6003
්‍යය	-6004
ත්‍යය	-6005
ෆෝන්	-6006
▁සම්පන්න	-6007
▁ප්‍රතිඵලයක්	-6008
ත්ර	-6009
▁ඇමරිකාවේ	-6010
▁පිටත්	-6011
▁අවල	-6012
අයි	-6013
▁මතුපිට	-6014
▁පරිත්‍යාග	-6015
▁80	-6016
▁ටෝ	-6017
▁එ්	-6018
කයකු	-6019
▁අධිරාජ්‍ය	-6020
▁පැමිණීම	-6021
ුවෙනි	-6022
▁ප්‍රග	-6023
▁සෙන්	-6024
▁සුරක්ෂිත	-6025
▁k	-6026
▁උපත	-6027
සියා	-6028
එක	-6029
▁සෑහෙන	-6030
▁එයාගේ	-6031
▁ස්පර්ශ	-6032
▁ජනපදය	-6033
▁වෙලාවක	-6034
▁අවුල්	-6035
▁ධම්ම	-6036
ෂිත	-6037
▁සිනම	-6038
▁සිහ	-6039
▁තිබ්බා	-6040
▁බලපාන	-6041
ෙදා	-6042
▁ප්ලාස්ටික්	-6043
ංකො	-6044
▁July	-6045
ඔහු	-6046
▁බීම	-6047
▁දෙව්	-6048
▁ව්‍යු	-6049
විටම	-6050
ධනය	-6051
▁තිබුණත්	-6052
▁දෙව	-6053
▁(1)	-6054
▁මඳ	-6055
▁එයි	-6056
iv	-6057
▁පංච	-6058
▁මන්ත්‍රි	-6059
▁හිතෙන්නේ	-6060
▁චිත්‍රපටයේ	-6061
▁ඇමෙරිකානු	-6062
▁වීමක්	-6063
▁ටියු	-6064
▁ඉස	-6065
මානය	-6066
▁නියමිතව	-6067
ියි	-6068
▁ගූගල්	-6069
තලේ	-6070
▁ඔන්	-6071
▁අලුතින්	-6072
▁කාරණ	-6073
▁මෙයා	-6074
▁සමගින්	-6075
▁නොවන්නේ	-6076
ලයට	-6077
▁පැමිණියේ	-6078
▁නිමි	-6079
පටි	-6080
▁පීඩා	-6081
▁එහෙයින්	-6082
▁කරද්දී	-6083
▁වේදන	-6084
▁ගලවා	-6085
සයක්	-6086
▁කෙරුණු	-6087
හෙන්න	-6088
▁රූපවාහිනී	-6089
ප්තිමත්	-6090
ජනයක්	-6091
▁පාන	-6092
▁හැමෝටම	-6093
▁තැනැ	-6094
ශාල	-6095
▁පාසලේ	-6096
ප්පත්	-6097
▁ඇමරිකාව	-6098
▁දෙයක්ම	-6099
▁මාසයේදී	-6100
සනය	-6101
▁ගෙන්වා	-6102
සමා	-6103
▁වැඩිදියුණු	-6104
oss	-6105
▁වකු	-6106
ිරු	-6107
පාන	-6108
▁අරාබි	-6109
ිකි	-6110
oogle	-6111
▁තර්ජනය	-6112
▁බණ්ඩාරනායක	-6113
▁සැකයක්	-6114
19	-6115
▁ඇහැ	-6116
▁ස්ථානයක්	-6117
ෝපදේශ	-6118
▁සූත්‍ර	-6119
දිලා	-6120
▁අදත්	-6121
▁ගායනා	-6122
▁අල්ලාහ්	-6123
▁අපහාස	-6124
▁පැවි	-6125
▁ව්‍යවසා	-6126
රූප	-6127
▁ආයේ	-6128
▁ඝාත	-6129
▁ෆෝන්	-6130
▁ටි	-6131
▁Art	-6132
▁පිටත	-6133
▁තිදෙන	-6134
▁ගැටලුවක්	-6135
://	-6136
▁ජර්මන	-6137
කොළ	-6138
▁පහන්	-6139
▁ලැබෙනු	-6140
▁පිහිටුවා	-6141
▁විසු	-6142
▁වටේ	-6143
▁ඇන	-6144
කටත්	-6145
▁තත්වයට	-6146
▁ලක්‍ෂ	-6147
▁ජීවිතයක්	-6148
විධා	-6149
මත්ව	-6150
▁නිලධාරීන්ට	-6151
▁පත්විය	-6152
▁පෙට්ට	-6153
▁අධ්‍යයන	-6154
▁ලෙඩ	-6155
▁තැබූ	-6156
▁වාර්තාවේ	-6157
▁Jan	-6158
ගුරු	-6159
▁බහුල	-6160
▁දෙදෙනෙකු	-6161
▁ගෙවීම්	-6162
▁හෝටල්	-6163
▁කෙටු	-6164
▁දෙකේ	-6165
▁පවතින්නේ	-6166
▁සම්පු	-6167
▁විසින්ම	-6168
▁ලැබුවා	-6169
▁සැලකිලිමත්	-6170
▁රණවිර	-6171
▁සැබවින්ම	-6172
▁අතීතයේ	-6173
▁v	-6174
ගර්	-6175
▁අඬ	-6176
ිකන්	-6177
▁ළමයින්	-6178
▁ආඩ	-6179
▁මාංශ	-6180
සිට	-6181
නාවට	-6182
▁බලාපොරොත්තුව	-6183
▁විශ්ලේෂණය	-6184
▁වයස්	-6185
▁ස්පා	-6186
▁නවස	-6187
▁ප්‍රො	-6188
ue	-6189
▁ඇමැතිවරයා	-6190
▁නැව	-6191
වුස්	-6192
▁පුද්ගලයෙක්	-6193
ick	-6194
ian	-6195
▁හදලා	-6196
...]	-6197
▁සොයාගෙන	-6198
▁ෆ්‍ර	-6199
▁ගැසට්	-6200
▁තිස්	-6201
▁ඇතත්	-6202
▁ගැනීම්	-6203
විණි	-6204
මුදු	-6205
▁පාකිස්තා	-6206
▁ලග	-6207
▁ඇමතිවරයා	-6208
▁පොලිසියේ	-6209
▁ලැබීමට	-6210
යක්ම	-6211
▁පින	-6212
මාණය	-6213
දියි	-6214
▁බහ	-6215
යාර්	-6216
පහ	-6217
ාවකට	-6218
▁අළුත්	-6219
ණික්	-6220
▁කඩින	-6221
ක්ශ	-6222
▁යාවත්කාලීන	-6223
▁කිසිවෙකු	-6224
▁සැකස	-6225
ගනිමින්	-6226
රෙන්	-6227
▁සත්‍යය	-6228
▁දිශ	-6229
▁තාමත්	-6230
▁ඉන්ද්‍ර	-6231
▁පාඨමා	-6232
ෝලික	-6233
▁උඩින්	-6234
▁ඇහුව	-6235
▁පැහැදිලිය	-6236
▁නිදහසේ	-6237
▁උරු	-6238
▁ක්‍රීඩකයින්	-6239
▁මුලු	-6240
▁තුළට	-6241
▁අවදි	-6242
▁කරවන	-6243
▁සංගීතය	-6244
▁ඵ	-6245
චනා	-6246
▁සේවකයන්	-6247
▁සහා	-6248
කින	-6249
▁අස්ථ	-6250
ාලේ	-6251
▁ආකෘතිය	-6252
▁අකමැති	-6253
▁නොම	-6254
▁හුස්ම	-6255
▁අවසානය	-6256
▁දැක්කා	-6257
ont	-6258
▁ගෙඩි	-6259
▁පත්වන	-6260
▁පෙළඹ	-6261
▁දිනේ	-6262
ටියෙන්	-6263
▁ගින්න	-6264
▁කඩිනමින්	-6265
▁බැඳුම්	-6266
▁ලුණු	-6267
▁වාද	-6268
▁කඳුළු	-6269
ea	-6270
අපේ	-6271
▁උපසිර	-6272
▁අහිතකර	-6273
▁රස්ස	-6274
▁එක්දින	-6275
▁An	-6276
▁මාත්‍ර	-6277
▁පසුබි	-6278
නින්	-6279
▁නිරා	-6280
▁නොප	-6281
දවා	-6282
▁දුප්පත්	-6283
-2	-6284
ik	-6285
ober	-6286
අද	-6287
▁මධු	-6288
▁වසරක්	-6289
▁Oct	-6290
▁යාප	-6291
ept	-6292
▁එච්චර	-6293
▁අයිස්	-6294
▁හිතාගෙන	-6295
ෙනා	-6296
▁කාටවත්	-6297
▁දැකලා	-6298
▁ලේකම්වරයා	-6299
ශ්‍රී	-6300
▁නිසාද	-6301
ail	-6302
වේදය	-6303
සහ	-6304
නර්	-6305
හරණය	-6306
▁ඔබතුමා	-6307
▁ආදායම	-6308
ගෙයි	-6309
සියෙන්	-6310
▁ආචාර	-6311
නන්	-6312
▁සිටින්න	-6313
▁සක්	-6314
▁දැම්මා	-6315
▁යනකොට	-6316
▁එළවළු	-6317
▁තිරි	-6318
▁වර්ගය	-6319
▁ප්‍රයෝජනවත්	-6320
▁Lanka	-6321
▁යවන	-6322
▁නිගමනය	-6323
.'	-6324
.30	-6325
▁වකුග	-6326
▁පෙන්වන	-6327
▁බෙහෙවින්	-6328
▁යෙදීම	-6329
ුරය	-6330
මිණ	-6331
වීමේදී	-6332
▁ආශි	-6333
▁ව්යා	-6334
▁2009	-6335
▁මන්දා	-6336
▁පශ්චාත්	-6337
▁දීල	-6338
▁කොටුව	-6339
ටද	-6340
▁පාපන්දු	-6341
කද	-6342
▁දැක්වේ	-6343
▁ක්‍රීඩාංග	-6344
▁ලෝහ	-6345
▁බහුතරයක්	-6346
ාලු	-6347
▁තිබී	-6348
ශ්‍රාය	-6349
ඩාක්	-6350
iz	-6351
▁කෙරිණි	-6352
ලේඛ	-6353
▁යෝ	-6354
▁සොර	-6355
▁වන්දි	-6356
ice	-6357
▁අක්ෂ	-6358
▁හමාර	-6359
▁ලිපියෙන්	-6360
ේශ්	-6361
හනේ	-6362
▁ඉවරයි	-6363
▁නඩත්තු	-6364
▁ඉන්ට	-6365
▁කෘෂිකර්ම	-6366
▁ක්ෂණ	-6367
OS	-6368
ද්ධි	-6369
▁ක්‍රමයෙන්	-6370
වුව	-6371
▁ප්‍රකට	-6372
▁මූණ	-6373
▁නිවෙස්	-6374
▁කරගනිමින්	-6375
බන්ධ	-6376
ල්ම	-6377
▁අවදානම්	-6378
▁කරන්නත්	-6379
▁හුදෙක්	-6380
▁උත්සාහය	-6381
▁නිවේදනයක්	-6382
▁දඟ	-6383
▁සළ	-6384
▁දිගට	-6385
▁අර්ජු	-6386
▁මෛත්‍රි	-6387
▁ෆෝ	-6388
▁පුරවැසිය	-6389
වාදයක්	-6390
▁රාජකාරි	-6391
▁ඉස්සරහට	-6392
="	-6393
▁හිටියෙ	-6394
තෙන්	-6395
▁සමාජයක්	-6396
▁බැඳුම්කර	-6397
ස්‍ය	-6398
▁එකවර	-6399
▁වෛද්‍යවරයා	-6400
▁අත්දැකීමක්	-6401
▁සුළ	-6402
මකට	-6403
▁ගෙවීමට	-6404
ෂ්ප	-6405
hone	-6406
▁ජනපදයේ	-6407
▁අශ	-6408
▁නොදී	-6409
▁කාබනික	-6410
▁ඒම	-6411
▁ලියලා	-6412
▁රචනා	-6413
ass	-6414
ේන්	-6415
▁කතෝලික	-6416
▁«	-6417
ියෙක්	-6418
▁සෛල	-6419
▁මායි	-6420
කිසි	-6421
▁අදාළව	-6422
▁ඊටත්	-6423
▁කුකු	-6424
ළුම්	-6425
ක්‍රිය	-6426
▁පරිමාණ	-6427
ීර	-6428
▁වෙසක්	-6429
▁සදාචාර	-6430
කයාගේ	-6431
▁පිරිමින්	-6432
▁බලතල	-6433
ඤ්ඤා	-6434
▁ඇගය	-6435
බායි	-6436
ateg	-6437
▁සිකු	-6438
▁කොමිසමේ	-6439
ial	-6440
▁කලි	-6441
▁විනෝ	-6442
▁ස්නා	-6443
ුවේය	-6444
▁ඇඟිලි	-6445
▁[...]	-6446
▁තොටුප	-6447
▁කල්‍යා	-6448
▁රාජිත	-6449
▁නිලධාරියා	-6450
▁එකකින්	-6451
▁පිල	-6452
▁මාර්ගෝපදේශ	-6453
ර්ට්	-6454
▁වනුයේ	-6455
▁මතකයි	-6456
▁නයි	-6457
▁ලිහි	-6458
▁ජුනි	-6459
▁ආතල්	-6460
▁ආරම්භක	-6461
▁කරමිනි	-6462
▁විපක්ෂයේ	-6463
▁හිරි	-6464
▁පර්යේෂ	-6465
▁ගම්මා	-6466
කයාට	-6467
▁චැට්	-6468
▁කතාවේ	-6469
▁සම්පාදනය	-6470
ම්පත	-6471
▁බදා	-6472
▁නොදැ	-6473
▁පුදු	-6474
▁දකුණ	-6475
▁සාම්ප්‍ර	-6476
▁නිදි	-6477
▁නවතා	-6478
▁උනන්දුවක්	-6479
▁මැණික්	-6480
▁වසරකට	-6481
එම	-6482
▁පත්වීම	-6483
▁මිනිසුන්ගේ	-6484
▁ගාස්තු	-6485
▁මහජනතාව	-6486
▁සංචිත	-6487
▁යෙදුම	-6488
▁නොකිරීම	-6489
▁කෙල	-6490
▁හසු	-6491
▁සිද්ද	-6492
▁හැදුව	-6493
▁වෙළෙඳපොළ	-6494
▁විශ්වවිද්‍යාලයේ	-6495
සරික	-6496
▁අහු	-6497
▁පියවරක්	-6498
ල්‍ය	-6499
ඩියක්	-6500
.6	-6501
▁සිති	-6502
ගෙදර	-6503
▁විශේෂාංග	-6504
▁කමිටු	-6505
▁හින්දු	-6506
▁හැසිරීම	-6507
▁ගියත්	-6508
නීප	-6509
▁යුරෝපා	-6510
ත්තික	-6511
▁සම්බන්ද	-6512
▁දුරු	-6513
▁තැනැත්තා	-6514
නයක	-6515
▁සමාගමට	-6516
▁කම්කරුවන්	-6517
▁ධනාත්මක	-6518
▁ඇතිවූ	-6519
ele	-6520
▁වුයේ	-6521
භි	-6522
යාත්මක	-6523
▁මොහොම	-6524
▁සන්ධා	-6525
▁අනිවාර්යයෙන්ම	-6526
▁රාත්‍රියේ	-6527
▁අලූ	-6528
▁Pro	-6529
▁හෙළිදරව්	-6530
▁පින්තූර	-6531
▁අභියා	-6532
▁පරීක්ෂණයක්	-6533
▁කියූ	-6534
▁විභාගය	-6535
▁නොසල	-6536
▁අරඹ	-6537
▁කිහිපය	-6538
රීමට	-6539
▁Sp	-6540
▁වර්ෂයේ	-6541
▁හමුවට	-6542
▁මහත්වරු	-6543
▁විශේෂිත	-6544
▁පැවැත්වීම	-6545
ීන්ගේ	-6546
▁කොහොමත්	-6547
▁නියු	-6548
▁ඊල	-6549
▁හත්	-6550
▁කතුව	-6551
▁බැව්	-6552
▁නැගිට	-6553
▁වැස්ස	-6554
ast	-6555
▁බීජ	-6556
▁ගාණ	-6557
▁මෙකී	-6558
දිව	-6559
▁පරම්පර	-6560
▁අමාරුයි	-6561
▁2022	-6562
▁බංග්	-6563
lay	-6564
▁සුද	-6565
▁භාවිතයෙන්	-6566
▁සුවය	-6567
▁භූමික	-6568
▁හදිසියේ	-6569
▁ලංකාවෙ	-6570
▁වැඩියි	-6571
▁විග්‍රහ	-6572
▁සුඛ	-6573
▁පරිපූර්ණ	-6574
▁සාගර	-6575
▁දැනුමක්	-6576
▁හිටි	-6577
▁සම්මුඛ	-6578
▁කාර්යභාර	-6579
පාත	-6580
යෙනි	-6581
▁වෙද්දි	-6582
▁ඈත	-6583
▁ජූනි	-6584
▁කථාව	-6585
▁උෂ්ණත්වය	-6586
වත්ව	-6587
▁ඉන්දික	-6588
▁අහලා	-6589
▁කරනව	-6590
▁තුළදී	-6591
▁ගොඩනැගිලි	-6592
▁නල	-6593
▁පරිපාලන	-6594
▁කණ්	-6595
▁සම්මේ	-6596
▁තියන්න	-6597
ඳින්න	-6598
මාන්‍ය	-6599
▁ආසාදිතයින්	-6600
▁මුහ	-6601
".	-6602
ossip	-6603
▁සන්ත	-6604
▁ඉර	-6605
▁අවධානයක්	-6606
▁පිරිවැය	-6607
ුන්	-6608
▁දෘෂ්	-6609
▁වෙයිද	-6610
▁ා	-6611
▁අමි	-6612
▁නොයෙක්	-6613
▁මාමා	-6614
▁අවසානයේදී	-6615
▁තායි	-6616
▁උපදේශක	-6617
▁අන්තර්ජාතික	-6618
▁උදය	-6619
▁පිටින්	-6620
▁දාපු	-6621
බට	-6622
න්ටත්	-6623
▁ශාස්ත්‍ර	-6624
හ්ම	-6625
▁මාදි	-6626
▁නොසලකා	-6627
▁දෙමාපියන්	-6628
▁October	-6629
▁පෙනෙන්නට	-6630
▁උගත්	-6631
▁පැමිණිය	-6632
▁ඉංජිනේරු	-6633
▁කණගා	-6634
▁තහන	-6635
▁පුරාවිද්‍යා	-6636
පුම්	-6637
▁සන්ධානය	-6638
ඬු	-6639
▁දිනක	-6640
▁Feb	-6641
▁සුරැ	-6642
ඥාව	-6643
▁දැම්	-6644
▁වැටුප	-6645
දින්	-6646
ළේ	-6647
▁වේදනා	-6648
▁පාන්	-6649
▁ආණ්ඩුකාර	-6650
අප	-6651
▁ගොඩාක්	-6652
▁විලාසි	-6653
▁ඉහළට	-6654
▁ඉක්මන්	-6655
▁සන්නිවේදන	-6656
ht	-6657
යාස	-6658
▁දකින්නේ	-6659
▁භූමි	-6660
▁සජීවී	-6661
▁බවත්ය	-6662
▁ප්‍රභා	-6663
බලය	-6664
▁අපිව	-6665
▁පැණි	-6666
ord	-6667
▁සිතන	-6668
▁හදුනා	-6669
▁හොඳටම	-6670
ඩ්ස්	-6671
▁රංජිත්	-6672
ෝල	-6673
▁රැු	-6674
▁ශාරී	-6675
▁දිගේ	-6676
▁අයදුම්	-6677
▁මහන්සි	-6678
ain	-6679
▁තනතුරු	-6680
▁පූජ්‍ය	-6681
කාරය	-6682
▁සද්ද	-6683
▁ඇතිවිය	-6684
▁පිළිගත්	-6685
ගැනීම්	-6686
▁ක්‍රීඩකයන්	-6687
▁මක්	-6688
චර්	-6689
▁වැඩිහිටි	-6690
▁විරා	-6691
වාදයේ	-6692
▁පදිංච	-6693
▁වුණාට	-6694
▁ක්‍රීඩක	-6695
වේගය	-6696
▁මිට	-6697
▁රාජ්‍යය	-6698
▁ව්‍යායාම	-6699
▁භාවනා	-6700
▁සාමාජිකයින්	-6701
මහා	-6702
▁දිව්‍ය	-6703
▁ලන්ඩ	-6704
▁තබන	-6705
▁පාරිසරික	-6706
▁ස්වයංක්‍රීය	-6707
▁වතාව	-6708
▁සම්භාව	-6709
▁හැඟීමක්	-6710
▁රහස	-6711
▁ආවෙ	-6712
▁වගන්	-6713
▁නිලධාරීන්ගේ	-6714
ඩ්‍ර	-6715
▁සත්ත්ව	-6716
▁කළහොත්	-6717
න්දුවක්	-6718
තුවේ	-6719
▁පහුගිය	-6720
▁බංග්ලාදේශ	-6721
▁ඉනිම	-6722
දෙමින්	-6723
▁ආරක්‍ෂක	-6724
▁36	-6725
▁චිත	-6726
▁විවර	-6727
▁කැමරා	-6728
▁අඳුරු	-6729
න්තය	-6730
▁තරුණිය	-6731
▁නවසී	-6732
ක්‍රමණ	-6733
ගාම	-6734
▁අනාගතයේ	-6735
▁අක්කර	-6736
▁වැසියන්	-6737
▁යාමේ	-6738
▁සභාපතිවරයා	-6739
මනය	-6740
▁උදාව	-6741
▁බුද්ධිමත්	-6742
▁හුඟ	-6743
කටද	-6744
eptember	-6745
ක්ටර්	-6746
ත්තෙන්	-6747
▁කෙලින්ම	-6748
▁අසීරු	-6749
▁ආකාරයකින්	-6750
inh	-6751
..."	-6752
▁බොන්න	-6753
▁ඔබත්	-6754
ෝත්	-6755
▁කැමැති	-6756
දෙන්නේ	-6757
ගික	-6758
▁පීරිස්	-6759
▁ක්‍රමයට	-6760
නිජ	-6761
▁අවහිර	-6762
▁ඕස්ට්‍රේලිය	-6763
▁හවස	-6764
▁December	-6765
▁ඔයාගෙ	-6766
▁නොගෙන	-6767
▁න්‍යාය	-6768
න්නෙත්	-6769
▁ශක්තියක්	-6770
▁නාමයෙන්	-6771
▁රාජකාර	-6772
ෆෝ	-6773
ගිරි	-6774
ඩිස්	-6775
▁විමසීම	-6776
ruary	-6777
ලට්	-6778
▁කෞතු	-6779
▁රාජකීය	-6780
▁පාවා	-6781
▁නවත්ත	-6782
▁ජනාධිපතිවරණ	-6783
ith	-6784
log	-6785
මිල්	-6786
▁තක්	-6787
ලියානු	-6788
▁Al	-6789
▁උපයෝගී	-6790
▁January	-6791
▁සංස්කරණය	-6792
කරගෙන	-6793
ne	-6794
▁තත්ත්වයේ	-6795
සැල	-6796
▁රැකියාව	-6797
▁චන්ද්‍රිකා	-6798
...”	-6799
▁ඇතුල	-6800
චර	-6801
▁පරිණ	-6802
▁කාන්තාවන්ට	-6803
ොටෝ	-6804
මාර්ට්	-6805
▁විරහිත	-6806
ක්‍රමණය	-6807
යූ	-6808
▁දේශපාලනික	-6809
▁නගා	-6810
▁වෛද්‍යවරුන්	-6811
▁90	-6812
▁ඩුබායි	-6813
▁45	-6814
▁යද්දී	-6815
▁කොහේ	-6816
ඤා	-6817
▁ගිවිසුම්	-6818
▁උල්ලංඝනය	-6819
▁අයවැය	-6820
▁විවිධා	-6821
▁ආවරණ	-6822
▁ඒකකය	-6823
▁අවදානමක්	-6824
දුරා	-6825
▁කැඩ	-6826
▁උස්ස	-6827
▁ගුරුවරු	-6828
▁කෑලි	-6829
ින්ට	-6830
▁කතාවට	-6831
▁ලබාගැනීම	-6832
▁y	-6833
▁නිරන්තරයෙන්	-6834
රාන්	-6835
▁තොරතුර	-6836
▁දුරකතන	-6837
▁කුසල්	-6838
▁හිනාව	-6839
mber	-6840
▁බහි	-6841
▁වස්	-6842
▁සපයා	-6843
▁විධිමත්	-6844
40	-6845
▁Z	-6846
▁හිම	-6847
▁තිබිණ	-6848
▁බඳවා	-6849
▁වේදිකාව	-6850
▁දෙනාම	-6851
▁ව්‍යාපාරයක්	-6852
▁මහේස්ත්‍රාත්	-6853
ort	-6854
▁වෙමි	-6855
▁3,	-6856
▁හඳ	-6857
▁කරන්නා	-6858
▁කම්ම	-6859
▁Article	-6860
දියේ	-6861
▁එදිනෙදා	-6862
නුවන්	-6863
▁මොහොතක	-6864
▁පවතිනවා	-6865
▁සුපුරුදු	-6866
▁සේවාවක්	-6867
නුකූලව	-6868
▁පැමිණීමට	-6869
▁භික්ෂූන්	-6870
▁කෙළවර	-6871
▁භී	-6872
▁හානිය	-6873
▁සබ්	-6874
▁>	-6875
සාව	-6876
▁ආයෝජනය	-6877
ණාත්මක	-6878
▁ඉලක්කය	-6879
▁දීමෙන්	-6880
▁බෝග	-6881
▁ස්වි	-6882
vember	-6883
▁යථා	-6884
▁ළමුන්	-6885
▁බවටත්	-6886
▁කිතු	-6887
▁ලොකුම	-6888
▁සාම්ප්‍රදායික	-6889
▁September	-6890
▁:-	-6891
පත්තු	-6892
▁දවා	-6893
▁වන්නේය	-6894
▁නන්ද	-6895
විම	-6896
▁අවලංගු	-6897
▁කල්හි	-6898
පන	-6899
ැඹ	-6900
▁ඒකෙන්	-6901
ටුවට	-6902
▁සැමට	-6903
▁අපො	-6904
යව	-6905
▁තියෙනවද	-6906
මියු	-6907
▁ආයතනයක්	-6908
▁බාගත	-6909
▁ඇණවුම්	-6910
▁පීඨ	-6911
▁තියලා	-6912
▁ඉන්නව	-6913
▁මිනිත්තු	-6914
.7	-6915
▁වෙසෙන	-6916
ලිම්පික්	-6917
▁→	-6918
සම්ප	-6919
▁වීරවංශ	-6920
▁February	-6921
▁නිමල්	-6922
▁තැනකට	-6923
වැඩ	-6924
▁විමර්ශනය	-6925
▁යවා	-6926
▁(19	-6927
:-	-6928
▁හිඳ	-6929
▁යහපත	-6930
▁32	-6931
▁එපමණ	-6932
.’	-6933
▁ඉහළින්	-6934
▁අනූ	-6935
▁නොදන්න	-6936
▁ලං	-6937
▁පිපිර	-6938
est	-6939
▁ධුරය	-6940
▁ශ්‍රේණි	-6941
▁ගාමිණී	-6942
▁නොගැ	-6943
▁පන්න	-6944
▁කෝල්	-6945
80	-6946
ත්තුව	-6947
ිට	-6948
▁ජෛ	-6949
▁උළෙල	-6950
▁අවශ්‍යතාවය	-6951
දෙණිය	-6952
▁රවි	-6953
▁කපු	-6954
ිනො	-6955
▁මාධ්‍යවේදීන්	-6956
ලන්තයේ	-6957
▁වාගේ	-6958
පසුව	-6959
▁ප්‍රංශ	-6960
▁සලසා	-6961
▁සොහොයු	-6962
▁ඉඳල	-6963
සිස්	-6964
ංශික	-6965
▁වෘත්තිය	-6966
▁ඉස්කෝලෙ	-6967
▁එත්	-6968
/2	-6969
සන්ත	-6970
ම්ම්	-6971
▁තුර්	-6972
▁අධිවේ	-6973
▁භික්‍ෂ	-6974
▁තීරණාත්මක	-6975
▁නාහි	-6976
▁වකුගඩු	-6977
hot	-6978
▁ලියපු	-6979
ම්බි	-6980
▁දැක්විය	-6981
ොක්	-6982
▁අසත්‍ය	-6983
▁ලක්වූ	-6984
සුණු	-6985
ත්තක්	-6986
▁කරේ	-6987
ස්වා	-6988
▁ආලෝකය	-6989
වුනා	-6990
කරුවකු	-6991
▁වියදම	-6992
▁භාවිතයට	-6993
▁ක්‍ෂ	-6994
▁අන්ධ	-6995
වැලි	-6996
▁ලග්	-6997
▁පිටත්ව	-6998
▁අසල්	-6999
▁අත්දැකීම	-7000
▁http	-7001
▁ගායක	-7002
▁පාරට	-7003
▁කල්‍යාණ	-7004
▁ගත්තොත්	-7005
▁නැමැති	-7006
▁&	-7007
▁නිවන්	-7008
▁ඔලිම්පික්	-7009
▁කමිටුවේ	-7010
▁ප්‍රචණ්ඩ	-7011
▁ඒකත්	-7012
▁යොදාගෙන	-7013
ෛර්ය	-7014
▁දළදා	-7015
▁දිවා	-7016
▁මර්දනය	-7017
▁රෝහණ	-7018
▁වැදගත්කම	-7019
▁ප්‍රවර්ධනය	-7020
▁හදව	-7021
▁resul	-7022
▁ජලා	-7023
▁බණ	-7024
▁රණතුංග	-7025
හීම	-7026
▁මොනා	-7027
▁දූප	-7028
▁හිසක	-7029
▁දොළ	-7030
▁බිහ	-7031
▁සිකුරාදා	-7032
▁වෙමු	-7033
▁අමුත්තන්	-7034
▁පරිච්ඡ	-7035
▁සමගි	-7036
▁ගැටළුව	-7037
▁ලත්	-7038
▁නොවේද	-7039
▁නිලධාරි	-7040
ags	-7041
වසර	-7042
▁November	-7043
ob	-7044
▁උපයා	-7045
ිකාවන්	-7046
▁වැටීම	-7047
▁වෙළඳපොළ	-7048
▁වර්ණය	-7049
▁කාර්යයන්	-7050
මහත්	-7051
▁පරිස්ස	-7052
▁දැකගත	-7053
▁නාග	-7054
▁ඝන	-7055
▁තල්ලු	-7056
කටම	-7057
තෝ	-7058
තාවයට	-7059
▁විකෘති	-7060
▁නෑනේ	-7061
▁හොයාගන්න	-7062
▁කීම	-7063
තාන	-7064
▁සමය	-7065
වගේ	-7066
සුන	-7067
▁සුල	-7068
▁නොකිය	-7069
▁විඳින	-7070
ome	-7071
▁තණ	-7072
▁චේ	-7073
සයට	-7074
▁සැත්	-7075
▁ජාවාරම්	-7076
▁සියුම්	-7077
▁Google	-7078
▁දේපළ	-7079
▁ගත්තු	-7080
▁වැඩම	-7081
▁පවසති	-7082
▁තැබීමට	-7083
▁පදනම්ව	-7084
ear	-7085
▁ඇමරිකා	-7086
▁උවමන	-7087
▁මනාව	-7088
▁රැස්වීම	-7089
▁ඇෆ්	-7090
▁අප්ප	-7091
▁ආශිර්	-7092
▁සමඟින්	-7093
බෙ	-7094
▁ලින්ක්	-7095
▁සංකල්පය	-7096
▁කටයුතුවල	-7097
▁ගෑනු	-7098
▁ක‍්‍රම	-7099
ස්ථානයක්	-7100
▁ඉලෙක්	-7101
▁සැලැස්	-7102
▁ආන්	-7103
▁ගෙනිය	-7104
▁පුස්ත	-7105
▁දිවිය	-7106
▁මන්ත‍්‍රී	-7107
‍ය	-7108
▁බිල්	-7109
්‍රොයිඩ්	-7110
විත්	-7111
▁වධ	-7112
▁චිත‍්‍ර	-7113
▁නායකයින්	-7114
▁ස්මාර්ට්	-7115
▁යුක්තිය	-7116
▁අරමුදල්	-7117
▁අනුග්‍රහ	-7118
▁නිමා	-7119
▁පැවසුව	-7120
▁සුන	-7121
▁පහසුව	-7122
එසේ	-7123
▁කුමරු	-7124
▁ලෝකේ	-7125
▁සීතල	-7126
වීමත්	-7127
▁අලෙවික	-7128
ලෑ	-7129
▁CO	-7130
▁චන්දි	-7131
▁ගැනීමේදී	-7132
▁දිනේෂ්	-7133
යිනි	-7134
▁විදුලිබ	-7135
▁වානේ	-7136
▁ගින	-7137
▁වුණොත්	-7138
▁ඇයව	-7139
▁සත	-7140
නියි	-7141
දෙස	-7142
▁රේඛ	-7143
▁වන්දනා	-7144
▁තත්පර	-7145
▁අවුලක්	-7146
▁ගර්භ	-7147
▁සම්පූර්ණයෙන්	-7148
▁පැහැති	-7149
▁අතුරුදන්	-7150
සිත	-7151
▁ඒකෙ	-7152
**	-7153
ත්වා	-7154
12	-7155
▁චෝදන	-7156
▁නිරෝධායන	-7157
▁අධිකාරියේ	-7158
▁නැහැන	-7159
▁දනි	-7160
▁හමුදාපති	-7161
▁මිස්	-7162
▁සංහි	-7163
▁ඔබ්බ	-7164
▁අදියර	-7165
▁තාක්	-7166
▁සිතින්	-7167
▁අරගලය	-7168
▁Q	-7169
▁කව්	-7170
▁වියළි	-7171
▁ලිබ	-7172
▁හිමිකර	-7173
▁කෙරු	-7174
▁300	-7175
▁කරන්නන්	-7176
ලියට	-7177
▁පාහේ	-7178
▁ලිඛ	-7179
ැල්ල	-7180
ගමන	-7181
▁පිළිප	-7182
▁උද්‍ය	-7183
▁වට්ටෝ	-7184
ah	-7185
ොළ	-7186
▁දැක්වීමට	-7187
▁ස්ථානාධිපති	-7188
▁කල්ල	-7189
▁කියනු	-7190
▁තරංග	-7191
▁විජිත	-7192
පතේ	-7193
▁පෙති	-7194
▁මොකද්ද	-7195
▁ග‍්‍ර	-7196
▁දේශගුණ	-7197
රුණේ	-7198
▁ගිහිල්ලා	-7199
▁පද්ධතියක්	-7200
▁Sh	-7201
▁ඇතුලේ	-7202
▁සිංගප්ප	-7203
▁සභාවට	-7204
▁දෙහි	-7205
රීන්	-7206
▁ත්‍රික	-7207
▁ලැජ්ජ	-7208
▁ඇවිල්ලා	-7209
▁පසුවන	-7210
ිනුත්	-7211
▁නිර්මාණයක්	-7212
.9	-7213
▁අඩුපාඩු	-7214
▁දික්	-7215
▁පීඩාවට	-7216
▁සපුරා	-7217
▁මියගොස්	-7218
ating	-7219
▁195	-7220
සියක්	-7221
▁යන්ත	-7222
▁අපව	-7223
▁දෙවියන්වහන්සේ	-7224
▁තුනකට	-7225
ink	-7226
▁ඝාතන	-7227
▁ව්‍යාපාරයේ	-7228
▁ගැහ	-7229
ුන	-7230
ලනිප	-7231
▁ගනුදෙන	-7232
▁අයිතියක්	-7233
▁අධිවේගී	-7234
▁පක්ෂයට	-7235
▁පිටපත්	-7236
▁අරමුණින්	-7237
වසේ	-7238
▁සන්නද්ධ	-7239
▁කතර	-7240
▁ධනවා	-7241
▁සැහැල්ලු	-7242
▁සෘජුව	-7243
▁විනිසුරුව	-7244
▁හූ	-7245
▁බිමට	-7246
▁අල්ලස්	-7247
▁අසමත්	-7248
▁චම්ප	-7249
ය්	-7250
රියන්	-7251
▁කොටු	-7252
▁උනන්දු	-7253
▁සේනාරත්න	-7254
▁ෆොටෝ	-7255
▁සිනහ	-7256
▁විහාරය	-7257
▁මාර්ගයක්	-7258
▁කකුල්	-7259
▁4,	-7260
▁සුදානම්	-7261
▁හදන්නේ	-7262
▁වේදිකා	-7263
▁දෙනාට	-7264
වෙතත්	-7265
▁අන්‍ය	-7266
▁ඉන්දියාවට	-7267
▁වෙන්නත්	-7268
▁භට	-7269
▁ක‍්‍රී	-7270
▁ජනාධිපතිවරයාගේ	-7271
▁වෙනිදා	-7272
ළුවට	-7273
▁විකුණු	-7274
▁ප්‍රවාහනය	-7275
▁සාකච්ඡාවක්	-7276
▁ප්‍රෝ	-7277
▁පන්ස	-7278
▁සමාගමක්	-7279
▁හැකියාවන්	-7280
▁ආලය	-7281
වකාශ	-7282
▁ප්‍රජා	-7283
▁ශත	-7284
ගාව	-7285
▁සෘජු	-7286
▁වෙන්නට	-7287
▁ඔවුන්ගෙන්	-7288
▁බෑග්	-7289
▁වුනාට	-7290
▁වැඩකට	-7291
▁දහසක්	-7292
▁ඊනියා	-7293
▁එක්ස්	-7294
▁හමුදාවට	-7295
▁සමඟම	-7296
පුරේ	-7297
▁තදින්	-7298
වැසි	-7299
▁බාධාවක්	-7300
▁නවකතාව	-7301
▁ගැටළුවක්	-7302
▁උඹේ	-7303
▁ඇත්තෙන්ම	-7304
▁රජුගේ	-7305
▁දිවයිනේ	-7306
▁සැබැ	-7307
▁ෆෙ	-7308
▁නොවනු	-7309
inhala	-7310
▁වක	-7311
▁තෙවන	-7312
▁කවුන්සි	-7313
▁වගාව	-7314
▁ආකර්ෂණය	-7315
ගනී	-7316
▁ප්‍රතිඵලය	-7317
▁ජපන්	-7318
day	-7319
▁යලි	-7320
▁අත්වි	-7321
▁නිකං	-7322
▁ගැනීමටත්	-7323
▁වැන	-7324
▁මාතල	-7325
▁;	-7326
▁සම්මු	-7327
▁අනාවැ	-7328
▁සලකුණු	-7329
▁අමාත්‍යංශය	-7330
▁බැක්	-7331
▁නියෝජිතයන්	-7332
▁කෞතුකා	-7333
▁ඒකයි	-7334
▁සමරවීර	-7335
‍‍	-7336
▁කොස්	-7337
ලංක	-7338
ධ්‍යා	-7339
ඩික	-7340
▁බැලුවා	-7341
▁අයියේ	-7342
▁බබා	-7343
▁රූපය	-7344
▁මුළුමන	-7345
වනෙ	-7346
▁කලු	-7347
▁නැත්තං	-7348
▁නිෂ්පාදිතය	-7349
ාර්මික	-7350
මේල්	-7351
▁රණසිංහ	-7352
▁පේශ	-7353
▁සමෘ	-7354
යැයි	-7355
හද	-7356
▁අයිතීන්	-7357
▁කාලයක	-7358
▁තිබේද	-7359
ant	-7360
▁කරවා	-7361
▁ශී‍්‍ර	-7362
▁මිහි	-7363
ons	-7364
වුල	-7365
▁දඩුව	-7366
▁පිරී	-7367
ෆ්ට්	-7368
▁කරගන්නා	-7369
▁හර්	-7370
▁හාමුදුර	-7371
▁විගණ	-7372
▁ප‍්‍රහාර	-7373
▁සීමිත	-7374
▁යකෝ	-7375
▁නොහොත්	-7376
▁විශ්වාසයක්	-7377
▁කඩදා	-7378
▁හිසකෙස්	-7379
ජින්	-7380
▁රිදී	-7381
▁මුලික	-7382
▁වැසිය	-7383
▁උපක්‍රම	-7384
▁මුල්ම	-7385
හුල	-7386
ුණාම	-7387
▁පුරවැසි	-7388
▁නසා	-7389
▁මෙතරම්	-7390
▁ලබනවා	-7391
▁එතැන්	-7392
▁යේසුස්	-7393
▁පටු	-7394
තිස්ස	-7395
▁හොදයි	-7396
ගාරයේ	-7397
▁ඉක්මණ	-7398
▁පරිශ්‍ර	-7399
▁පවසමින්	-7400
app	-7401
▁මාසය	-7402
▁ත්‍රී	-7403
▁විවාහය	-7404
▁194	-7405
▁හේරත්	-7406
▁පත්වී	-7407
▁ජනාධිපතිවරයාට	-7408
▁නීතී	-7409
▁ලාංකීය	-7410
ill	-7411
ඳුනු	-7412
▁යුරෝපීය	-7413
▁ඵලදායී	-7414
දුනු	-7415
කමට	-7416
▁නිවෙස	-7417
▁හොදින්	-7418
▁බුරු	-7419
▁ලියැ	-7420
ේට	-7421
▁කැළ	-7422
▁දෙවෙනි	-7423
▁ප්‍රතිපත්තිය	-7424
▁සපුර	-7425
▁ඉන්දු	-7426
▁දරණ	-7427
දීමක්	-7428
▁රුසියාව	-7429
ාට	-7430
▁ගමනේ	-7431
▁වෙන්කර	-7432
▁App	-7433
රුවත්	-7434
▁බලහත්	-7435
▁කිල	-7436
▁දහස	-7437
▁මිනිහා	-7438
▁විපක්ෂය	-7439
පෙර	-7440
ens	-7441
▁යන්ත්‍රය	-7442
▁මැලේ	-7443
▁හන්ද	-7444
▁අධ්‍යක්ෂක	-7445
▁මාලාව	-7446
▁නොවීය	-7447
▁මෙහෙයුම	-7448
▁කලේය	-7449
දර්	-7450
ළට	-7451
▁විකුණුම්	-7452
▁හොත්	-7453
වියට්	-7454
▁ජයසූරිය	-7455
▁දීමනා	-7456
▁තබාගෙන	-7457
▁බහුලව	-7458
▁එක්වෙමින්	-7459
▁පෙරේදා	-7460
▁මණ්ඩලයට	-7461
▁ගානක්	-7462
ඉතින්	-7463
▁සෝම	-7464
▁කාරණයක්	-7465
වසම්	-7466
▁මෙසේය	-7467
▁ම්	-7468
▁තක්සේ	-7469
▁දියුණුව	-7470
▁පැළඳ	-7471
▁ක‍්‍රියාත්මක	-7472
▁ජාන	-7473
▁ජාතීන්	-7474
දෙනෙක්	-7475
ජ්ජා	-7476
න්නත්	-7477
▁ගණිත	-7478
තුවෙන්	-7479
▁හං	-7480
නික්	-7481
▁සිරුරේ	-7482
▁තැනැත්ත	-7483
▁කතාබහ	-7484
▁(201	-7485
▁පේනවා	-7486
▁උරුමය	-7487
▁විල	-7488
..!	-7489
▁ඇනෝ	-7490
▁රටවලට	-7491
ැලි	-7492
▁යන්	-7493
▁මට්ටමින්	-7494
▁උස්	-7495
▁මුදු	-7496
▁ක්‍රිස්තු	-7497
▁යෑයි	-7498
▁පාසැල්	-7499
▁යටින්	-7500
▁දැක්වෙන්නේ	-7501
▁නිකන්	-7502
▁බෝධි	-7503
ෂ්ටික	-7504
ීටර්	-7505
▁මැක්	-7506
▁ආන්ඩුව	-7507
කුම්	-7508
▁ළඟට	-7509
▁අවශ්‍යයි	-7510
▁ලියල	-7511
▁ලකුණ	-7512
▁විශේෂත්වය	-7513
ණියේ	-7514
▁කොම්ප	-7515
▁මට්ටමක	-7516
▁කතානායක	-7517
තිකා	-7518
▁හදපු	-7519
ඩම්	-7520
▁මුද්‍රණය	-7521
ට්ටුවේ	-7522
ීටී	-7523
▁සැරි	-7524
▁පෙනුම	-7525
▁වෑන්	-7526
▁ප්‍රචාරය	-7527
▁ගැනීමයි	-7528
▁විනිමය	-7529
▁ශාරීරික	-7530
▁සිවු	-7531
▁වූව	-7532
▁පෙරළ	-7533
▁තනිය	-7534
▁කැම්ප	-7535
▁කෝප	-7536
▁Comments	-7537
▁මාර්ගයෙන්	-7538
▁ඇන්ඩ්‍රොයිඩ්	-7539
ram	-7540
▁දැං	-7541
▁ඇසුරු	-7542
▁පිරිසකට	-7543
▁නිරෝගී	-7544
▁ගාව	-7545
▁වචනයක්	-7546
ිකරුවන්	-7547
▁බයිසික	-7548
▁දවල්	-7549
දායි	-7550
▁ධනය	-7551
▁සන්නිවේදනය	-7552
▁යොදවා	-7553
ටරි	-7554
▁මිර	-7555
පූ	-7556
වතුර	-7557
▁ගණනය	-7558
▁දැක්ම	-7559
▁පැවිදි	-7560
▁පොදුවේ	-7561
▁වෝ	-7562
කාරයා	-7563
▁සිටුව	-7564
▁ටොන්	-7565
▁ඔහේ	-7566
▁සම්බන්ධයක්	-7567
▁හදාගන්න	-7568
.''	-7569
▁මොහොමඩ්	-7570
▁මධ්‍යස්ථානයේ	-7571
යිය	-7572
▁ලස්සනට	-7573
▁යෝජනාවක්	-7574
▁සමහරවිට	-7575
.8	-7576
▁ජෛව	-7577
▁ගව	-7578
▁ක්‍රියාවට	-7579
▁භාජනය	-7580
▁කෑග	-7581
▁ජගත්	-7582
තෙ	-7583
මිත්	-7584
▁ගොඩනැඟ	-7585
▁ලබාගන්න	-7586
▁2000	-7587
▁කාර්යා	-7588
▁අවධානයට	-7589
▁ඉදික	-7590
▁කාගේ	-7591
▁හිතලා	-7592
▁පිරිනැම	-7593
ගරු	-7594
▁තුන්වන	-7595
▁පුනරු	-7596
▁කියවලා	-7597
▁පුවත	-7598
▁මෙවලම්	-7599
▁අපේක්‍ෂ	-7600
▁විටමින්	-7601
▁සීන්	-7602
ලිව්	-7603
▁වහල	-7604
හිරි	-7605
▁ජාතියක්	-7606
▁තීර	-7607
▁ක්‍රියාකාරිත්වය	-7608
▁සේරම	-7609
▁ගැබ්	-7610
▁වුනු	-7611
ික්	-7612
කින්න	-7613
▁මාවත	-7614
▁අනුවා	-7615
▁ගෝත්‍ර	-7616
▁අන්තවාදී	-7617
ෆා	-7618
▁චම්පික	-7619
▁මේජර්	-7620
සේක	-7621
▁බැඳී	-7622
▁බන්දු	-7623
▁ඔන්ලයින්	-7624
▁පැවසිය	-7625
▁ප්‍රවණ	-7626
▁යාච්	-7627
▁5,	-7628
▁එයයි	-7629
▁නීතිපතිවරයා	-7630
දීම්	-7631
තමා	-7632
▁පුරාවට	-7633
▁ස්ත්‍ර	-7634
▁විදුලිබල	-7635
▁විවේච	-7636
ුනු	-7637
▁ගැඹුර	-7638
මණා	-7639
▁ටෙන්	-7640
▁දෙමාපිය	-7641
▁වටිනාකමක්	-7642
ට්‍රො	-7643
▁වාක්‍ය	-7644
▁කීමට	-7645
▁පිටරට	-7646
▁අහන	-7647
▁පැන්	-7648
▁සියවසේ	-7649
වුම	-7650
වැන්නක්	-7651
▁සොයාගත	-7652
▁කුමක්දැයි	-7653
▁වරින්	-7654
▁ගහල	-7655
ස්ත‍්‍ර	-7656
ey	-7657
▁කොන්ද	-7658
▁අත්හැර	-7659
▁එයාගෙ	-7660
▁දැල්	-7661
▁පෙත්සම්	-7662
▁හිතුවේ	-7663
▁බෝතල්	-7664
▁ඊළඟට	-7665
▁පිලිබදව	-7666
▁Gossip	-7667
මතා	-7668
ේෂන්	-7669
▁ඔස්ට්‍රේ	-7670
▁පලතුරු	-7671
▁රටාව	-7672
▁සග	-7673
සෙන්	-7674
▁අවා	-7675
▁අවධ	-7676
▁මෑතකදී	-7677
නවද	-7678
යටම	-7679
මියන්	-7680
▁සහෝදරයා	-7681
▁යමු	-7682
▁ලෝකෙ	-7683
▁සිටිමු	-7684
VID	-7685
තාර	-7686
▁පෙළේ	-7687
ලියක්	-7688
▁විනිශ්චය	-7689
මස්	-7690
▁යුතුද	-7691
▁ඩා	-7692
ථමික	-7693
▁කළුතර	-7694
▁රැස	-7695
නයකට	-7696
▁විනාශය	-7697
▁ක්‍රියාවක්	-7698
▁අනුපාතය	-7699
▁ගැනයි	-7700
ලද	-7701
▁තරහ	-7702
▁සංඛ	-7703
▁ෆයි	-7704
▁ජයසු	-7705
▁ප‍්‍රශ්න	-7706
▁අධ්‍යක්‍ෂ	-7707
▁සවන්	-7708
හැබැයි	-7709
ite	-7710
▁ආපදා	-7711
ෙක්ස්	-7712
ල්ලන්	-7713
▁තනික	-7714
වුණා	-7715
▁යොවුන්	-7716
▁නීතිපති	-7717
▁කොටා	-7718
▁ප්ලේ	-7719
ීර්	-7720
▁නියමිතයි	-7721
▁විග	-7722
▁සෙල්	-7723
▁ගුරුවරුන්	-7724
▁පරිභෝජනය	-7725
▁වටපිට	-7726
▁අපේක්ෂක	-7727
විරෝධ	-7728
▁වරු	-7729
▁දිනයක්	-7730
▁ප්‍රභේද	-7731
▁ප්‍රසංග	-7732
▁අම්මට	-7733
▁පිළිය	-7734
▁කෙස්	-7735
▁රඟපෑ	-7736
▁ඥාන	-7737
▁අන්තර්ගතය	-7738
▁මෙන්ඩිස්	-7739
▁අභ්‍යවකාශ	-7740
▁පවි	-7741
▁ආශ්‍රිතව	-7742
▁ධම්	-7743
▁අඩවියට	-7744
▁කැමරාව	-7745
▁චාරි	-7746
▁කීර්ති	-7747
▁අත්හි	-7748
▁දිනයේදී	-7749
▁කරුණකි	-7750
▁ඇවිද	-7751
▁ශ්‍රේෂ්ඨාධිකරණය	-7752
▁හොරු	-7753
▁සිදුවීමක්	-7754
▁ඇසුරුම්	-7755
▁ඇසූ	-7756
▁මූලාශ්‍ර	-7757
ාරාම	-7758
▁පනවා	-7759
▁ලෙසය	-7760
ද්ය	-7761
▁සාමාන්ය	-7762
▁ඔවුන්ව	-7763
ank	-7764
යන්න	-7765
▁පේරා	-7766
▁නලින්	-7767
ටේ	-7768
▁භාෂාවෙන්	-7769
▁තැන්ප	-7770
▁රඟපා	-7771
ෂේ	-7772
▁And	-7773
න්නේය	-7774
කිරීමේ	-7775
ත්තල්	-7776
මුල්ල	-7777
▁ඛනිජ	-7778
▁දානවා	-7779
▁මුණගැ	-7780
කික	-7781
▁මිනීම	-7782
▁මර්දන	-7783
▁වටිනවා	-7784
හනය	-7785
▁ආර්ය	-7786
▁ඉරණම	-7787
▁නිසැකවම	-7788
ළක්	-7789
▁සංඥා	-7790
▁යනාදිය	-7791
▁ත‍්‍ර	-7792
▁කරුවන්	-7793
▁ඔබා	-7794
ඩුවක්	-7795
▁කෙස	-7796
▁එන්නෙ	-7797
▁කෙසේවෙතත්	-7798
▁කස	-7799
▁ඉදන්	-7800
▁වර්ජනය	-7801
▁තියාගන්න	-7802
▁ආඩම්බර	-7803
▁ඉස්මතු	-7804
▁හොයන්න	-7805
▁කියනව	-7806
▁අධීක්ෂණය	-7807
▁වැළැක්වීම	-7808
▁රුව	-7809
▁අත්වැ	-7810
▁කනගා	-7811
▁ආයුර්	-7812
▁සුනඛ	-7813
▁කප්පා	-7814
▁දැනගන්නට	-7815
▁සේනානායක	-7816
▁පැහැදිළි	-7817
න්ට්	-7818
▁මහලේ	-7819
▁ගොඩනැගිල්ල	-7820
▁අයහ	-7821
ස්තියානි	-7822
ගයේ	-7823
කාලීනව	-7824
ලෙන	-7825
▁(2)	-7826
▁පුතු	-7827
▁වීදුරු	-7828
ගයක්	-7829
▁ග්‍රී	-7830
▁උගු	-7831
▁මෙතනින්	-7832
▁33	-7833
▁කොණ්ඩ	-7834
▁යුගය	-7835
ana	-7836
▁හුඟක්	-7837
▁නොකරන්න	-7838
▁මිරිස්	-7839
▁භේද	-7840
▁මාසික	-7841
▁පුරාණ	-7842
▁සෙනසු	-7843
නන	-7844
▁සේවාදායක	-7845
▁උපාධිය	-7846
▁෴	-7847
▁ආධිප	-7848
ස්සන්	-7849
▁කිසිඳු	-7850
▁වම්	-7851
▁සුලු	-7852
▁1000	-7853
▁සොයු	-7854
▁පෙරවරුවේ	-7855
▁හරින	-7856
▁සොඳුරු	-7857
▁ජාලය	-7858
වේදිය	-7859
▁උදවිය	-7860
▁ත්‍යාග	-7861
▁කරුණාරත්න	-7862
▁සඳුදා	-7863
▁ජයග්‍රා	-7864
දෝ	-7865
▁නොවිය	-7866
නම	-7867
▁x	-7868
▁සසර	-7869
▁නෑනෙ	-7870
▁පෙනෙන්නේ	-7871
▁දූෂිත	-7872
ලාල්	-7873
▁ඇබ්	-7874
▁කෝපි	-7875
වො	-7876
▁දේපල	-7877
▁තිදෙනා	-7878
▁පොළොන්න	-7879
▁ලෙන	-7880
සිංහල	-7881
දුවක්	-7882
▁සෝවියට්	-7883
▁පාදක	-7884
▁එලි	-7885
▁පැවතු	-7886
▁අත්හිටුව	-7887
▁150	-7888
▁සංගම්	-7889
▁ගැබ	-7890
▁ඔයාලට	-7891
▁සෞඛ්‍යය	-7892
▁නිෂ්පාදනයේ	-7893
දයක්	-7894
▁දණ්ඩ	-7895
අනු	-7896
ෙද්දී	-7897
▁සිදුවනු	-7898
▁ස්තුති	-7899
▁බොන	-7900
▁බද්ධ	-7901
▁දෙන්නෙ	-7902
▁තිරය	-7903
▁වැඳ	-7904
▁පයින්	-7905
▁ප්‍රාග්	-7906
▁ඩෙංගු	-7907
සස්	-7908
▁අවස්ථාවන්	-7909
▁බලන්නේ	-7910
▁වියේ	-7911
▁වෙතට	-7912
ත්ථ	-7913
▁යෝග්‍ය	-7914
▁මිතුරා	-7915
▁ඔලුව	-7916
▁කෘෂි	-7917
▁රක්ෂණ	-7918
ebook	-7919
▁ආසන්නයේ	-7920
▁ඉක්මනට	-7921
▁දෙන්නෙක්	-7922
ාවකින්	-7923
▁යැවීම	-7924
පෙන්	-7925
▁ශෝක	-7926
▁රැකියාවක්	-7927
▁නාශක	-7928
..”	-7929
▁නිෂ්පාදනයක්	-7930
ෆර්	-7931
දෙනෙකු	-7932
▁වැදග	-7933
ෝපා	-7934
▁අලුත්ම	-7935
▁කෙනෙක්ට	-7936
▁ගෙවීම	-7937
▁ස්වාමීන්වහන්සේ	-7938
...!	-7939
▁අත්‍යාව	-7940
▁අධිකාරි	-7941
ara	-7942
කරණයක්	-7943
▁රාජ්‍යයේ	-7944
පනය	-7945
nt	-7946
▁විසිර	-7947
▁තිබ්බේ	-7948
ොඩ	-7949
▁නොවු	-7950
▁ලිව්වේ	-7951
රයෙක්	-7952
ලීන්	-7953
▁ක්ෂේත්‍රය	-7954
▁ගතිය	-7955
ඳුන්	-7956
qu	-7957
▁නිකා	-7958
▁6,	-7959
▁එදිරි	-7960
▁වරප්‍ර	-7961
▁වෙස්	-7962
▁පනත්	-7963
▁මාක්ස්	-7964
▁ස්වාමි	-7965
▁බලාගන්න	-7966
ත්වැ	-7967
▁සුළං	-7968
▁මාතෘකාව	-7969
▁ධෛර්ය	-7970
▁ගත්හ	-7971
▁පුස්තකාල	-7972
කාරව	-7973
▁අධ්‍යක්ෂණය	-7974
▁ඔහුගෙන්	-7975
▁නර්	-7976
▁වළක්	-7977
▁දම්	-7978
▁ප්‍රතිසංස්කරණ	-7979
▁අදහ	-7980
වැඩි	-7981
ෑන්ඩ්	-7982
▁ඇඹ	-7983
ුවහොත්	-7984
▁කතරගම	-7985
▁ගුණාංග	-7986
▁තාවකාලික	-7987
▁රජයෙන්	-7988
▁වන්	-7989
වියන්	-7990
▁ප‍්‍රා	-7991
▁ද්විත්ව	-7992
▁කෙසේදැයි	-7993
▁යම්කිසි	-7994
රජ	-7995
▁බලයෙන්	-7996
පාට	-7997
▁විපාක	-7998
▁දැමිය	-7999
ෙරො	-8000
▁ආයතනවල	-8001
▁ලිහිල්	-8002
▁ආසියාවේ	-8003
▁ලක්ෂ්	-8004
▁පිටව	-8005
▁පුණ	-8006
▁ඉස්සෙ	-8007
▁pro	-8008
▁8,	-8009
▁කෘත	-8010
වුඩ්	-8011
▁ආසාදිතයන්	-8012
ideo	-8013
▁නොදෙන	-8014
▁යුගල	-8015
▁කේක්	-8016
▁75	-8017
වැට	-8018
▁ඈත්	-8019
දේම	-8020
▁7,	-8021
ීමයි	-8022
▁කැමර	-8023
▁ජාතියේ	-8024
විටර්	-8025
▁න්‍ය	-8026
▁දෙදෙනාම	-8027
▁‍පො	-8028
▁වැඩසටහනක්	-8029
▁බහුතරය	-8030
▁විසුරුවා	-8031
▁සිතට	-8032
සීමට	-8033
හාමි	-8034
ලියම්	-8035
▁බීබී	-8036
▁විත්ති	-8037
▁ජීවත්වන	-8038
▁කථානායක	-8039
එහෙම	-8040
▁සංකේත	-8041
▁More	-8042
හුම්	-8043
▁දකුණේ	-8044
කයින්ට	-8045
ලියා	-8046
▁අවුරුද්දේ	-8047
▁ශාලාව	-8048
▁පකි	-8049
ක්‍රියා	-8050
▁නැවුම්	-8051
▁යනව	-8052
ell	-8053
ිබි	-8054
ග‍්‍රහ	-8055
▁ප්‍රධානී	-8056
▁ඊශ්‍රාය	-8057
ගට	-8058
roid	-8059
▁යුරෝපයේ	-8060
▁සෝදා	-8061
▁චෙ	-8062
▁උඩරට	-8063
▁එකමු	-8064
ර්‍	-8065
▁කිලෝමීටර්	-8066
▁මෛත්‍රිපාල	-8067
▁නොකියා	-8068
▁රථයක්	-8069
▁ගෙවන්න	-8070
ිකාර	-8071
▁පෘතු	-8072
▁උඩට	-8073
▁ලැයිස්තු	-8074
මෙහි	-8075
▁වැව්	-8076
තාන්	-8077
▁තෑගි	-8078
▁යුක්	-8079
▁දිනක්	-8080
දක්	-8081
out	-8082
15	-8083
▁සේවයක්	-8084
▁අපද්‍රව්‍ය	-8085
▁විල්	-8086
▁එළැඹ	-8087
▁නිති	-8088
ාවරණය	-8089
▁ආයි	-8090
▁අයගෙන්	-8091
▁ප්‍රේමය	-8092
▁ප්‍රවීණ	-8093
▁සිතු	-8094
▁මධ්‍යයේ	-8095
▁නළු	-8096
▁පොස්ට්	-8097
▁ගමට	-8098
▁හිතුනා	-8099
▁කටයුතුවලට	-8100
▁ජැක්	-8101
▁කිව්වට	-8102
▁පන්දුවාර	-8103
ach	-8104
end	-8105
ලීම්	-8106
යද	-8107
▁යෝධ	-8108
ධාරණයක්	-8109
▁රබර්	-8110
▁පාඩු	-8111
▁ඔෆ්	-8112
ලාන්	-8113
▁සාර්ථකත්වය	-8114
▁සමුළුව	-8115
▁ග්‍රෑම්	-8116
▁තිල	-8117
චික	-8118
▁දිනෙක	-8119
▁කැමැත්තක්	-8120
▁දෙකෙන්	-8121
▁අභියාචනා	-8122
▁හැරීමට	-8123
▁වුනොත්	-8124
ෂණීය	-8125
▁Im	-8126
▁ග්‍රාමීය	-8127
▁හිංස	-8128
▁පහතින්	-8129
▁ඉදිරියෙන්	-8130
▁සලකන	-8131
▁රෝද	-8132
සාදය	-8133
▁අත්‍යාවශ්‍ය	-8134
▁උපසිරැසි	-8135
▁මැරෙන	-8136
▁එබඳු	-8137
▁අවස්ථාවලදී	-8138
▁හොයාගෙන	-8139
මොකද	-8140
▁ස්තූති	-8141
ර්ණය	-8142
▁ඇබ්බැ	-8143
▁පාතාල	-8144
▁නැවැත්ව	-8145
.......	-8146
▁මහජනය	-8147
60	-8148
▁වැසික	-8149
▁තරුණයා	-8150
▁දෙනාගේ	-8151
▁සිහිනය	-8152
▁දෙකකින්	-8153
රික්	-8154
▁මුතු	-8155
acebook	-8156
▁10,	-8157
▁සරසවි	-8158
▁පුළුවන	-8159
▁වලංගු	-8160
▁සාව	-8161
▁සංදේශ	-8162
▁දවසට	-8163
▁දැරූ	-8164
▁දැනගත	-8165
▁පුරවැසියන්	-8166
▁දරුවෝ	-8167
ress	-8168
▁අර්ථය	-8169
▁රෝස	-8170
▁උසාව	-8171
▁නොවෙන	-8172
▁මහත්වරුන්	-8173
lk	-8174
▁අච්ච	-8175
▁නීතියේ	-8176
▁සැපයු	-8177
▁ch	-8178
ගස්	-8179
ව්ස්	-8180
▁ජනක	-8181
▁ගත්තෙ	-8182
ිල්ල	-8183
▁විකාර	-8184
▁පුළුවන්ද	-8185
ක්‍රී	-8186
▁දැනෙනවා	-8187
▁මුදලින්	-8188
▁පුනර්	-8189
▁සිනමාව	-8190
▁චෛ	-8191
▁ලැබේවා	-8192
▁ආච්චි	-8193
sh	-8194
▁බැල්	-8195
▁වකවා	-8196
▁ආරම්භයේ	-8197
▁කලකට	-8198
▁හෑ	-8199
▁ඇන්ඩ්	-8200
▁පොලීසියට	-8201
▁ඇමතුම්	-8202
▁ගිවිසු	-8203
",	-8204
▁හැග	-8205
▁කරගන්නට	-8206
▁ධූර	-8207
▁තැබිය	-8208
▁මාධ	-8209
ද්දෙන්	-8210
▁විච	-8211
▁රථයේ	-8212
▁තාවකාලිකව	-8213
දියට	-8214
ියාවේ	-8215
▁වාතාව	-8216
▁කිසිසේත්	-8217
රණයක්	-8218
▁සිංහලෙන්	-8219
▁ජාතිවාදී	-8220
▁කුර	-8221
▁උනොත්	-8222
අර	-8223
විස්	-8224
▁උත්සාහයක්	-8225
ඩුවේ	-8226
▁හොදම	-8227
තාවයන්	-8228
▁බලනවා	-8229
▁බිත්ති	-8230
▁ස්ථානවල	-8231
බදු	-8232
ේශ්වර	-8233
▁කෑමට	-8234
▁වදන්	-8235
මියුනි	-8236
▁අමතමින්	-8237
▁විකල්පයක්	-8238
▁නියත	-8239
පතින්	-8240
▁හමුවී	-8241
▁අඩුයි	-8242
▁රඳා	-8243
අනේ	-8244
▁ලාබ	-8245
▁ධූ	-8246
▁නාන	-8247
▁ඉරිය	-8248
▁හිතවත්	-8249
▁පිරිසට	-8250
▁කර්තෘ	-8251
▁බාධක	-8252
▁යනුවෙනි	-8253
▁දරුවෙක්	-8254
▁මිථ	-8255
▁ඉන්නා	-8256
▁අසන්නට	-8257
රෙ	-8258
▁ලබමින්	-8259
ett	-8260
▁ඇහුවා	-8261
▁ස්වල්	-8262
▁කඩදාසි	-8263
▁ආග	-8264
මාලි	-8265
▁ප්‍රදානය	-8266
▁පළි	-8267
▁වෘත්තික	-8268
▁උත්තේ	-8269
▁ආරක්ෂණ	-8270
▁හාල්	-8271
▁හරිත	-8272
▁සිතමි	-8273
▁ශරීරයට	-8274
▁පස්වරුවේ	-8275
ියකට	-8276
▁ඩයස්	-8277
▁වාහනය	-8278
▁ආකාරයක	-8279
▁වේලාවක්	-8280
▁නිවැරැ	-8281
කුයි	-8282
ත්තෑ	-8283
▁2008	-8284
තෙල්	-8285
▁වීම්	-8286
per	-8287
▁බුලත්	-8288
ඬේ	-8289
▁කරන්නෙමු	-8290
▁අමාත්‍යංශ	-8291
සිටි	-8292
▁වතාවට	-8293
▁පරීක්‍ෂණ	-8294
▁අධිකාරී	-8295
▁අවන්	-8296
▁කැරැ	-8297
▁දහවල්	-8298
▁එයාලා	-8299
▁බලල	-8300
▁පැත්තෙ	-8301
▁සමගාමී	-8302
oug	-8303
▁ශල්‍ය	-8304
▁ගෙනා	-8305
ට්ටේ	-8306
▁රයි	-8307
▁විසඳා	-8308
▁ගුවන්තො	-8309
කුමාර	-8310
▁රත්නපුර	-8311
▁ප්‍රතිපාදන	-8312
▁Un	-8313
▁මුහුදේ	-8314
▁iP	-8315
▁සැත	-8316
▁අවකාශය	-8317
▁අගයක්	-8318
▁නවත්ව	-8319
▁යතුරුපැ	-8320
ෙනෙක්	-8321
▁වැටුණු	-8322
▁යටිතල	-8323
▁සැමවිටම	-8324
දහ	-8325
▁කැම්පස්	-8326
▁ගනන්	-8327
▁තාරකා	-8328
▁තෙත්	-8329
ප්පුව	-8330
▁ගැලප	-8331
▁ජිනී	-8332
▁බින්	-8333
▁තර්ජන	-8334
කන	-8335
▁<	-8336
▁දුකක්	-8337
▁පැහැදිලිවම	-8338
පං	-8339
▁ඔසවා	-8340
▁පාලනයක්	-8341
▁සමහරක්	-8342
▁ආරංච	-8343
▁පිළිගැනීම	-8344
▁කර්මාන්තයේ	-8345
▁බොදු	-8346
▁ගිලි	-8347
▁විභාගයට	-8348
▁අම්බ	-8349
බීජ	-8350
▁බෙන්	-8351
▁තේරීම්	-8352
න්නාර	-8353
11	-8354
▁එහාට	-8355
▁යද්දි	-8356
කීර්	-8357
▁ගැනීමක්	-8358
▁පහළට	-8359
▁සපුරාල	-8360
ඹා	-8361
දම්	-8362
▁හැරුණු	-8363
▁ප්රධාන	-8364
▁නීත්‍යා	-8365
බන	-8366
▁ආරෝප	-8367
▁අනුමාන	-8368
▁මැටි	-8369
යෙකි	-8370
▁වැව	-8371
▁පැමිණිල්ල	-8372
▁බාර්	-8373
▁සමන	-8374
▁දක්වයි	-8375
▁නියෝගයක්	-8376
▁ඇතිවීම	-8377
▁තැන්වල	-8378
▁අතුරින්	-8379
▁කුලී	-8380
▁කැපවීම	-8381
▁විවිධාකාර	-8382
ස්ථානයට	-8383
▁අනුකම්	-8384
රක	-8385
▁පිළිතුරක්	-8386
දෙනවා	-8387
කිල	-8388
▁නිවන	-8389
▁පේන	-8390
▁සිටිමින්	-8391
බස්	-8392
▁තෙමේ	-8393
▁දඹු	-8394
▁වත්ත	-8395
▁අපේක්ෂකයා	-8396
▁එතනින්	-8397
▁ජනතාවගෙන්	-8398
▁කිව්වත්	-8399
▁අප්‍රිකානු	-8400
av	-8401
මද	-8402
ජේ	-8403
▁ඉස්කෝලේ	-8404
▁විකාශය	-8405
▁අධිකරණයේ	-8406
▁එපමණක්	-8407
ee	-8408
▁කුමාරි	-8409
▁වෙල්	-8410
▁හිතුවා	-8411
▁අඩුවෙන්	-8412
▁දන	-8413
▁ලැබිණි	-8414
▁අභය	-8415
▁ක්ෂේ	-8416
▁37	-8417
විලා	-8418
▁පිළිගත	-8419
ුණත්	-8420
▁ලවා	-8421
▁සිද්ධියට	-8422
දීමෙන්	-8423
▁ඛේද	-8424
▁ප්‍රදේශයට	-8425
▁කෙටික	-8426
▁දිවුරු	-8427
▁සැකසුම්	-8428
▁ඔබටත්	-8429
▁යටපත්	-8430
කෙර	-8431
▁ආහාරය	-8432
▁ප්‍රහාරයක්	-8433
ණයන්	-8434
▁34	-8435
කමින්	-8436
ire	-8437
▁පළාත	-8438
ck	-8439
▁වඳ	-8440
▁for	-8441
▁News	-8442
▁ar	-8443
▁මතයක්	-8444
▁සමස්ථ	-8445
▁තනියම	-8446
▁12,	-8447
න්නක්	-8448
▁ජනා	-8449
▁ද්‍රවිඩ	-8450
▁ගැනීමත්	-8451
▁මහණෙනි	-8452
▁වීසා	-8453
▁දුරක්	-8454
▁දක්ෂතා	-8455
වැල්ල	-8456
▁හඳුන්වන	-8457
▁ජැ	-8458
▁නගරයට	-8459
▁අසනීප	-8460
▁උළෙලේ	-8461
▁හිමියෝ	-8462
▁කිහිපයකින්	-8463
ද්වී	-8464
▁ඉවතට	-8465
▁විනෝදා	-8466
▁මෙයයි	-8467
ියෙකු	-8468
▁කොතැන	-8469
▁කෝප්ප	-8470
▁මෙමගින්	-8471
▁සහතිකය	-8472
▁අනිවාර්	-8473
▁වනාහි	-8474
▁දැක්කම	-8475
▁ඇන්ට	-8476
වති	-8477
දරු	-8478
▁නොනැ	-8479
▁හැදෑ	-8480
▁ජෝර්	-8481
▁ඉස්සරහ	-8482
▁$	-8483
▁ලබාදිය	-8484
▁හේම	-8485
▁පාලම	-8486
▁සාකච්ඡාවට	-8487
ස්ටන්	-8488
▁විනිවිද	-8489
▁පොලිස්පතිවරයා	-8490
▁තරමේ	-8491
▁පිලිබඳව	-8492
▁කරදරයක්	-8493
▁ගන්නෙ	-8494
▁නැවතු	-8495
ුනා	-8496
▁හතරේ	-8497
නාට්‍ය	-8498
සව	-8499
▁කෙන්	-8500
▁එකකි	-8501
▁ගානේ	-8502
▁Ad	-8503
▁අවවාද	-8504
▁නීතියට	-8505
තනයේ	-8506
සුනක්	-8507
චක	-8508
▁ෂධ	-8509
www	-8510
▁දෑස්	-8511
▁කාටත්	-8512
▁සක්‍රීය	-8513
▁සමේ	-8514
▁ආසයි	-8515
▁ට්විටර්	-8516
න්ඩ්	-8517
▁බරක්	-8518
▁ඇතුලට	-8519
▁හිමියන්ගේ	-8520
▁හැමදේම	-8521
TE	-8522
මිණි	-8523
කුළු	-8524
▁හමුවීමට	-8525
▁සිතන්නේ	-8526
▁ගිහිල්ල	-8527
▁ළමයින්ට	-8528
▁තීරු	-8529
▁භූමියේ	-8530
▁විහාරා	-8531
▁ලොක	-8532
▁ලොවට	-8533
භංග	-8534
▁මඩු	-8535
▁නානා	-8536
▁මොර	-8537
▁සම්බන්ධය	-8538
▁ටිකට්	-8539
▁පරම්පරාව	-8540
▁ඇඩ්	-8541
ට්ටා	-8542
▁රියදුරු	-8543
▁තක්ක	-8544
▁එතෙක්	-8545
▁මුළුමනින්ම	-8546
▁පාත්‍ර	-8547
▁වෙළද	-8548
▁නියෝගය	-8549
බැඳ	-8550
තාක්	-8551
▁විස්සයි	-8552
own	-8553
▁පේශි	-8554
▁නොතකා	-8555
▁දිනෙන්	-8556
▁කෙල්ලෙක්	-8557
▁සිටිනු	-8558
ගැනීමක්	-8559
▁කායික	-8560
▁ජොන්	-8561
ov	-8562
්‍රි	-8563
ධිකාරී	-8564
▁වෛරස්	-8565
▁මාලාවක්	-8566
▁හෙන	-8567
වාසීන්	-8568
පාර්	-8569
මිට	-8570
▁කටුනායක	-8571
▁ආයුර්වේද	-8572
▁හදවත්	-8573
▁ප‍්‍රශ්නය	-8574
▁400	-8575
▁ආශාව	-8576
▁ආණ්	-8577
යියා	-8578
ටූ	-8579
▁නෙවේ	-8580
▁වාරි	-8581
▁දඬුවම	-8582
▁වෙලාවෙ	-8583
▁48	-8584
▁සන්ධානයේ	-8585
ව්වෙ	-8586
▁100%	-8587
තියා	-8588
▁නැත්තම්	-8589
▁තුනෙන්	-8590
▁එළිය	-8591
▁පෙන්වන්න	-8592
▁අසාමාන්‍ය	-8593
▁මහත්තය	-8594
දර්ශන	-8595
දෙයි	-8596
▁අරි	-8597
▁ශිල්පීන්	-8598
▁හ්	-8599
ඔයා	-8600
▁අභියෝගයක්	-8601
▁අවබෝධය	-8602
▁ටැබ්	-8603
▁කාරිය	-8604
▁හයක්	-8605
▁කියු	-8606
▁සාරා	-8607
▁අධ්‍යය	-8608
▁රෙජි	-8609
▁අසීම	-8610
▁මුන්	-8611
▁හොදට	-8612
▁සතුර	-8613
▁තථා	-8614
▁පාලනයට	-8615
▁රැස්වීම්	-8616
▁කුසලතා	-8617
▁අනුභව	-8618
▁නුඹලා	-8619
▁හෙල	-8620
▁මිනී	-8621
▁කියවීම	-8622
▁කොටසේ	-8623
▁කොමියුනි	-8624
▁භව	-8625
▁කෙසෙල්	-8626
▁රසය	-8627
▁වින්ද	-8628
▁සින්දු	-8629
▁ප්‍රසිද්ධියේ	-8630
▁ඇමතු	-8631
▁හරවා	-8632
▁ඌව	-8633
▁ගම්මන්	-8634
25	-8635
▁Sri	-8636
▁දෙමල	-8637
න්ත්‍රික	-8638
ිපි	-8639
ඝ්‍ර	-8640
▁බ්ල	-8641
▁අනෙක	-8642
▁කටයුත්තක්	-8643
▁තරමින්	-8644
රියක්	-8645
▁කිසිවකු	-8646
ුවත්ව	-8647
rol	-8648
වැල්	-8649
▁හෙහ්	-8650
▁බිරිය	-8651
▁කැලෑ	-8652
▁අසූ	-8653
ගන්තු	-8654
හිරු	-8655
▁සහයෝගී	-8656
▁තෝරාගත්	-8657
▁වෙනදා	-8658
▁ඇතුලත	-8659
▁මිළ	-8660
▁චින්තනය	-8661
▁දෙන්නම්	-8662
▁මීළඟ	-8663
▁ඇදගෙන	-8664
▁සහනයක්	-8665
▁වීඩියෝව	-8666
▁බිලි	-8667
▁හිතාගන්න	-8668
සිලි	-8669
▁දීපු	-8670
▁සතියකට	-8671
▁පැකේ	-8672
▁ප්‍රතිරෝධ	-8673
▁පථ	-8674
ලිංගික	-8675
▁9,	-8676
▁හරක්	-8677
දැක්	-8678
▁ගෑණු	-8679
මන්ට්	-8680
▁ත්‍රස්තවාදය	-8681
▁ගැහැනු	-8682
▁ක්‍රමවේදය	-8683
දැන	-8684
▁ආනයන	-8685
▁ලංකාවෙන්	-8686
▁ව්‍යවසායක	-8687
▁වස්තු	-8688
ans	-8689
▁කාමරේ	-8690
▁ලැබුන	-8691
ොම්	-8692
▁ගමගේ	-8693
▁ලැබුණි	-8694
ගිරිය	-8695
▁කාව්‍ය	-8696
▁ප්‍රාථමික	-8697
▁වත්කම්	-8698
▁පඩි	-8699
▁ප්ල	-8700
තාවන්	-8701
▁හදනවා	-8702
▁යන්නත්	-8703
▁පැමිණිල්ලක්	-8704
-3	-8705
ම්පත්	-8706
▁ඉපැ	-8707
ක්ෂාත්	-8708
▁සෙනසුරාදා	-8709
▁සලා	-8710
▁යනාදී	-8711
▁සංහිඳ	-8712
▁රටකට	-8713
▁පවර	-8714
ශීලි	-8715
▁යැවීමට	-8716
▁රන්ජන්	-8717
මේක	-8718
▁අරං	-8719
▁තැනින්	-8720
▁උපකල්ප	-8721
▁මෙහෙවර	-8722
▁එප	-8723
▁පද්ධතියේ	-8724
▁ගංවතුර	-8725
▁සම්මන්ත්‍ර	-8726
oft	-8727
පුරුෂ	-8728
දයේ	-8729
▁බුද්ධා	-8730
▁වෝල්	-8731
කරන්	-8732
ළුවේ	-8733
▁ස්ථානයක	-8734
ෝන	-8735
▁ඔත්තු	-8736
යකම	-8737
▁පැවසුවේය	-8738
▁සොබා	-8739
▁තේරුම	-8740
▁මාතලන්	-8741
▁කදිම	-8742
▁දොස්	-8743
ඤ්ච	-8744
▁වෙළෙන්	-8745
▁සන්ද	-8746
▁විඳින්න	-8747
ර්මානු	-8748
▁කරනා	-8749
▁හාමුදුරුවෝ	-8750
ash	-8751
▁රණවක	-8752
▁නැහැනේ	-8753
▁නොහැකිව	-8754
▁ගියාට	-8755
▁දමි	-8756
▁ගෙනත්	-8757
▁හෝල්	-8758
▁පේන්න	-8759
▁අරමුදල	-8760
▁අයකු	-8761
▁වදින	-8762
▁පමනක්	-8763
▁තුඩු	-8764
▁ප්‍රධානියා	-8765
▁ඇබ්බැහි	-8766
හමාර	-8767
▁ප්රතිඵල	-8768
▁බැක්ටී	-8769
▁අයිෆෝන්	-8770
▁බලමින්	-8771
▁ගොවිත	-8772
▁අමාරුවෙන්	-8773
▁Android	-8774
බාහු	-8775
▁ෂෙ	-8776
▁ඉස්ලාම	-8777
▁ගොඩනගා	-8778
▁කීව	-8779
▁මෝස්තර	-8780
යාද	-8781
▁කදු	-8782
▁පරතර	-8783
▁විදි	-8784
▁අයෙකුට	-8785
▁පතු	-8786
▁දේශපාලනයට	-8787
▁ඊමේල්	-8788
▁අවාසනාවන්ත	-8789
▁කළමණා	-8790
▁මානු	-8791
▁නීතීඥ	-8792
▁සපයයි	-8793
▁වැරැද්ද	-8794
මෙය	-8795
නෑ	-8796
▁උද්ඝෝෂණ	-8797
▁ගිණුම	-8798
▁ගිල	-8799
▁පමණින්	-8800
▁සාක්ෂාත්	-8801
▁තෙම	-8802
ඔවුන්	-8803
සුදුසු	-8804
▁මගීන්	-8805
ඩෝස්	-8806
els	-8807
▁පන්සල්	-8808
▁අලූත්	-8809
▁නුවරඑ	-8810
▁කැමැත්තෙන්	-8811
▁ඒකකයේ	-8812
වුනු	-8813
▁හෙන්	-8814
කං	-8815
දීප	-8816
▁de	-8817
ජිප්	-8818
▁දැම්මේ	-8819
▁බළකා	-8820
ගිර	-8821
▁කුතු	-8822
▁ඉවාන්	-8823
ix	-8824
▁උබ	-8825
▁අර්ජුන	-8826
ුමක්	-8827
▁මනාප	-8828
▁කාලයට	-8829
▁හදාගෙන	-8830
▁ප‍්‍රදේශයේ	-8831
▁ගෙවිය	-8832
▁පිළික	-8833
▁තට්ටු	-8834
▁ප්‍රශ්නයට	-8835
▁අව්	-8836
▁18,	-8837
▁සිහින්	-8838
සිඳ	-8839
▁ආයතනයට	-8840
කතා	-8841
▁පෙම්වතා	-8842
තුමිය	-8843
▁results	-8844
▁සව	-8845
▁ආදේශ	-8846
▁ක්රම	-8847
▁ආගන්තු	-8848
▁සවිස්තර	-8849
▁කටහ	-8850
▁නගරා	-8851
▁ආකෘති	-8852
▁පොහොසත්	-8853
▁කවුරුන්	-8854
▁තර්ජනයක්	-8855
▁14,	-8856
කරුවෝ	-8857
ax	-8858
▁ඇමෙරිකාවේ	-8859
▁කාමරය	-8860
▁මිතුරු	-8861
▁සිටියත්	-8862
ප්තිය	-8863
▁පරම	-8864
ෙන්ට	-8865
▁උනන්දුව	-8866
▁නිසාවෙන්	-8867
▁අමාත්‍යංශයේ	-8868
ech	-8869
ලුන්	-8870
▁ඇතුළේ	-8871
▁←	-8872
ක්කාර	-8873
▁එතැනින්	-8874
▁මේකේ	-8875
▁මවා	-8876
▁තීන්දුවක්	-8877
▁ඇවිල්ල	-8878
▁සාප්පු	-8879
▁කිසිදා	-8880
▁බලාපොරොත්තුවෙන්	-8881
තනයක්	-8882
▁ශ්‍රේණිගත	-8883
▁Cl	-8884
▁ශිල්පින	-8885
▁ක්ෂණික	-8886
▁ඉදලා	-8887
▁ලන්	-8888
▁සිද්ධියක්	-8889
▁සරු	-8890
▁සංශෝධන	-8891
▁තියුණු	-8892
▁කියාය	-8893
▁සිතුවම්	-8894
▁කරුණාව	-8895
▁නිරාවරණය	-8896
සිත්	-8897
▁this	-8898
ලියන්	-8899
▁කළද	-8900
▁ජපානයේ	-8901
▁බන්දුල	-8902
ඩාවේ	-8903
▁ඔරලෝ	-8904
▁පස්වරු	-8905
▁හොරෙන්	-8906
▁දිවුරුම්	-8907
▁අඩංගුවට	-8908
▁දුරස්ථ	-8909
▁කිසිසේත්ම	-8910
▁මෙහෙමයි	-8911
▁දුමින්ද	-8912
▁දෙමව්පියන්	-8913
▁ෆැ	-8914
▁කඩිනම්	-8915
භූත	-8916
▁සදාකාල	-8917
▁මතට	-8918
▁ලයිට්	-8919
එක්	-8920
ුද්‍ර	-8921
▁දුක්ඛ	-8922
▁මුදලා	-8923
තිව්	-8924
▁පෝෂණ	-8925
▁සැබැවින්ම	-8926
▁ප්‍රශ්ණ	-8927
bo	-8928
▁ළමයා	-8929
▁තරගයට	-8930
▁අයුර	-8931
▁නෙත්	-8932
▁මන්නාර	-8933
▁තුරන්	-8934
▁වගන්තිය	-8935
කන්න	-8936
▁කීයක්	-8937
▁පිටිප	-8938
▁ආත්මය	-8939
▁ලෑස්ති	-8940
▁හමුවූ	-8941
▁ථා	-8942
ස්කම්	-8943
▁එමනිසා	-8944
ළුවා	-8945
▁තෙවැනි	-8946
▁ත්‍රස්තවාදී	-8947
▁රටම	-8948
▁වටින	-8949
▁පුද්ගලයන්ට	-8950
ෆික්	-8951
▁තිරසාර	-8952
▁මුත්	-8953
▁හැක්	-8954
▁හානික	-8955
▁ලිපිනය	-8956
▁ක්‍රිස්තියානි	-8957
▁ආකර්ෂණීය	-8958
▁වැඩපිළිවෙළක්	-8959
▁ඉඟ	-8960
▁නොස	-8961
මර	-8962
▁කොමියුනිස්ට්	-8963
දහස්	-8964
▁කුළු	-8965
▁අතීතය	-8966
▁පැමින	-8967
ප්ට	-8968
වාසී	-8969
▁නිපදවන	-8970
▁මුල්‍ය	-8971
▁බලවේගය	-8972
▁(3	-8973
▁තුනක	-8974
▁බ්‍රහස්	-8975
▁උගන්	-8976
▁සිසිල්	-8977
▁පනි	-8978
ච්චිය	-8979
▁Read	-8980
▁සැලසුම	-8981
ge	-8982
▁ඇන්ජ	-8983
▁හිතෙන්නෙ	-8984
▁උන්ගේ	-8985
කරණයේ	-8986
▁පාන්දර	-8987
▁සුරංග	-8988
▁අවශ්‍යය	-8989
▁පෙන්වීම	-8990
▁ඔක්සි	-8991
▁පිළිම	-8992
▁අභියෝගය	-8993
▁එච්	-8994
▁අධ්‍යා	-8995
චන්ද්‍ර	-8996
▁හොරා	-8997
▁දූපත්	-8998
නාට	-8999
▁සබැඳි	-9000
▁පිස්ස	-9001
යැ	-9002
ical	-9003
▁සංරක්ෂණ	-9004
▁සිටිමි	-9005
▁ටෙලිනාට්‍ය	-9006
න්නෙමි	-9007
▁උච්ච	-9008
▁ඉක්මණින්	-9009
indow	-9010
▁සමාලෝචන	-9011
▁පාක්ෂ	-9012
ජාතන්ත‍්‍ර	-9013
ෂ්ක	-9014
▁ව්‍යවස්ථාවේ	-9015
▁විසඳුම	-9016
▁එස	-9017
▁දෘෂ්ටි	-9018
▁රහසි	-9019
▁ඉටුකර	-9020
▁සම්බන්ධතාවය	-9021
▁අස්ස	-9022
ාරණය	-9023
▁සුහද	-9024
▁ඡායාරූපය	-9025
ර්ආ	-9026
▁එකිනෙකට	-9027
/0	-9028
ණ්ඩිත	-9029
දහම	-9030
▁ඔයාව	-9031
▁ජයරත්න	-9032
▁රංගනය	-9033
▁ගම්මාන	-9034
‍්‍රය	-9035
▁සිසුන්ට	-9036
▁රත්තර	-9037
මාල	-9038
▁ගමනට	-9039
▁ආරම්භය	-9040
▁සනී	-9041
its	-9042
▁ඒකේ	-9043
බිය	-9044
▁වයසේ	-9045
▁මාරුව	-9046
▁නැරඹීමට	-9047
වපු	-9048
▁13,	-9049
▁කුළ	-9050
▁තැන්පතු	-9051
▁සිටියාය	-9052
▁22,	-9053
▁භික්ඛ	-9054
▁වරප්‍රසාද	-9055
▁උන්වහන්සේගේ	-9056
වෝ	-9057
▁පුත්‍රයා	-9058
70	-9059
▁ශාලා	-9060
▁බුද්ධිය	-9061
▁නිශ්ශ	-9062
▁කොමෙන්ට්	-9063
▁කතික	-9064
▁සැලකෙන	-9065
▁කැණ	-9066
▁මෙහා	-9067
▁පෙරහර	-9068
▁ගවේෂණය	-9069
▁බලු	-9070
▁සූත්‍රය	-9071
▁සංවාදය	-9072
▁ලියන්නේ	-9073
▁ලක්ෂ්මන්	-9074
▁කුතුහල	-9075
යෙකුත්	-9076
▁ගහපු	-9077
▁එළඹෙන	-9078
▁දැනෙන්නේ	-9079
▁ධාවන	-9080
▁දුර්ල	-9081
▁පෙම්වතිය	-9082
mer	-9083
▁අන්දමට	-9084
▁ශ්‍රීලනිප	-9085
▁වරයා	-9086
▁ධාරිතාව	-9087
▁දෙපාර්තමේන්තුවට	-9088
▁කොරියානු	-9089
▁එන්නට	-9090
▁සිරුරු	-9091
▁නොවෙ	-9092
▁අමුතුවෙන්	-9093
▁ත්‍රිකුණාම	-9094
▁ව්	-9095
▁යුෂ	-9096
▁නැටු	-9097
ාවෙනි	-9098
▁ධාතු	-9099
▁ලලිත්	-9100
▁විකුණා	-9101
▁කලත්	-9102
▁තිරගත	-9103
▁රීති	-9104
▁සම්ප්‍රදා	-9105
▁විමල	-9106
▁ඇතැයිද	-9107
▁පරාජයට	-9108
හරුවා	-9109
▁සද්ධ	-9110
▁සතුටට	-9111
▁නිරීක්ෂණ	-9112
▁වරෙන්	-9113
සාන	-9114
▁ආකර්ශ	-9115
▁දිර	-9116
▁හසුව	-9117
▁සාමකාමී	-9118
▁ජපානය	-9119
▁දැකීම	-9120
▁කූඩ	-9121
දිවි	-9122
▁කෙටියෙන්	-9123
▁ක්‍රමවේදයක්	-9124
▁යෞ	-9125
▁අපේක්ෂිත	-9126
▁දෙදෙනෙක්	-9127
ත්ද	-9128
▁ඔබ්බට	-9129
▁ගුණරත්න	-9130
▁38	-9131
▁අමතා	-9132
▁කලෙක	-9133
බට්	-9134
කරුවෙක්	-9135
▁පය	-9136
▁ගීතයක්	-9137
▁මට්ටම්	-9138
▁ඉතිරිව	-9139
ක්ට	-9140
රම්	-9141
▁බැති	-9142
ටම්	-9143
▁ඊජිප්	-9144
▁විභ	-9145
▁පරිසරයට	-9146
▁බැද	-9147
▁අවුරුද්දක්	-9148
14	-9149
▁රසායන	-9150
උඹ	-9151
▁අපෙන්	-9152
▁ස්නායු	-9153
▁හඳුනාගත	-9154
omp	-9155
▁අන්දමින්	-9156
iru	-9157
▁නාස්ති	-9158
ට්ටුවක්	-9159
ඹුල්	-9160
▁සිංගප්පූ	-9161
▁එනකොට	-9162
▁මාතෘක	-9163
▁දෙරට	-9164
යිකල්	-9165
▁වැටිලා	-9166
ද්රව්ය	-9167
▁පුවත්පතේ	-9168
▁නිම්	-9169
▁Sinhala	-9170
▁ගොන්	-9171
▁ගැටලූ	-9172
▁11,	-9173
▁අයහපත්	-9174
▁කුමාර්	-9175
▁දක්වාම	-9176
▁මහලේකම්	-9177
▁Vi	-9178
▁අදි	-9179
▁කොහෙන්	-9180
▁ඇත්ද	-9181
▁වහන්	-9182
▁පැවසුවාය	-9183
▁නොකරයි	-9184
තුමාගේ	-9185
▁වැළකී	-9186
නවත්	-9187
▁කාරුණ	-9188
▁මට්ටමට	-9189
තින්ම	-9190
▁ව්‍යාප්තිය	-9191
පොලේ	-9192
▁විවේක	-9193
▁නවාතැන්	-9194
▁අස්සේ	-9195
18	-9196
විදු	-9197
▁චිත‍්‍රපට	-9198
▁පතා	-9199
▁ලැබෙයි	-9200
▁ශාඛ	-9201
eg	-9202
▁නික්ම	-9203
▁ගිහිං	-9204
ැහැ	-9205
▁බීබීසී	-9206
▁ගේන්න	-9207
▁ප්‍රසාද	-9208
▁මිනිහෙක්	-9209
▁ගැසීම	-9210
▁පැවතිය	-9211
ඇත්ත	-9212
▁වයඹ	-9213
▁සිද්ධි	-9214
▁20,	-9215
ටිස්	-9216
▁Ex	-9217
▁ඇදී	-9218
▁හැන්ද	-9219
කරා	-9220
▁රියැ	-9221
▁දක්වන්නේ	-9222
▁හානිකර	-9223
▁කරන්නම්	-9224
▁කවුරුවත්	-9225
▁රාජධානියේ	-9226
වරය	-9227
▁වැඩට	-9228
▁තථාගත	-9229
ප‍්‍ර	-9230
▁හදාර	-9231
▁මිලක්	-9232
▁යෝජිත	-9233
▁ප්‍රචාරක	-9234
ගුලා	-9235
▁කොල්ලෙක්	-9236
▁සපත්තු	-9237
▁වාදනය	-9238
▁පත්‍රය	-9239
▁ඝාතනයට	-9240
▁පෙනුමක්	-9241
▁පෙන්වීමට	-9242
▁ප්‍රකාශන	-9243
▁තොරතුරක්	-9244
▁19,	-9245
▁ඉඟි	-9246
න්දනය	-9247
▁කද	-9248
▁වැදගත්ම	-9249
▁නොසිට	-9250
▁දැකල	-9251
▁විපක්‍ෂ	-9252
යුරු	-9253
▁කියන්නම්	-9254
.,	-9255
පණ	-9256
▁පුවරුව	-9257
▁කලොත්	-9258
▁බොහෝම	-9259
▁කරනුයේ	-9260
▁දේශපාලනයේ	-9261
ann	-9262
ෂක	-9263
▁21,	-9264
▁තිබුණද	-9265
▁කාලීනව	-9266
▁දහයක්	-9267
▁අග්‍ර	-9268
▁එවා	-9269
▁ළි	-9270
▁ප‍්‍රජාතන්ත‍්‍ර	-9271
▁විවේචන	-9272
▁විරෝධතාව	-9273
ලගේ	-9274
▁ගුණය	-9275
▁හරස්	-9276
▁කරන්	-9277
▁ගංග	-9278
ළුවන්	-9279
▁මුදලාලි	-9280
▁වුවමන	-9281
ace	-9282
▁පිස	-9283
▁කිරීමටද	-9284
▁පනස්	-9285
▁සමුද්‍ර	-9286
▁65	-9287
▁පුටුව	-9288
▁රැජින	-9289
▁තියේ	-9290
▁පූජාව	-9291
▁මවගේ	-9292
▁ශ්‍රම	-9293
ශ්වය	-9294
▁බස	-9295
ාදී	-9296
▁ඔයාලා	-9297
▁පාරවල්	-9298
▁කළයුතු	-9299
▁ගනිමු	-9300
▁උල්	-9301
▁චිත්‍රපටි	-9302
ැට	-9303
▁ඇප්	-9304
▁ශ්‍රමික	-9305
▁කෑල්ල	-9306
▁සෙනඟ	-9307
පිලි	-9308
▁සැලැස්ම	-9309
▁අක	-9310
▁සුරා	-9311
▁කාබන්	-9312
▁ආවොත්	-9313
▁කෙලෙ	-9314
ශයේ	-9315
▁සමගාමීව	-9316
▁පදනමක්	-9317
▁අස්වැන්න	-9318
▁පයි	-9319
▁පසක්	-9320
▁ගන්නත්	-9321
ස්ගේ	-9322
▁අනාවැකි	-9323
▁වයසට	-9324
ථනය	-9325
▁ඉදිරිපත්ව	-9326
▁හිට්	-9327
වමනා	-9328
▁පැද	-9329
▁කදී	-9330
▁කාලසීම	-9331
▁පදක්ක	-9332
▁පහරක්	-9333
▁රිෂා	-9334
▁තරුණියන්	-9335
▁ගම්මන්පිල	-9336
▁අරලිය	-9337
ED	-9338
විටත්	-9339
▁හෙලි	-9340
▁ඉදිරිය	-9341
eave	-9342
▁දැඩිව	-9343
▁අනුකූලව	-9344
▁(20	-9345
▁සුළඟ	-9346
කින්ම	-9347
▁අඩුවක්	-9348
▁නීතියක්	-9349
▁දැකීමට	-9350
▁මන්ත්‍රීවරු	-9351
▁බදාදා	-9352
▁කෑල්ලක්	-9353
▁ටිකත්	-9354
▁උදවු	-9355
▁ලබන්න	-9356
ඩියේ	-9357
ිණ	-9358
▁මැනවින්	-9359
▁නින්	-9360
▁සංස්ථාව	-9361
▁ලොක්ක	-9362
▁වාමා	-9363
▁කාර්යාලයට	-9364
▁මොහොතක්	-9365
▁දශකයේ	-9366
▁මහාධිකරණ	-9367
▁යථාර්ථය	-9368
▁කෙරෙන්නේ	-9369
ක්‍රා	-9370
▁ලොක්කා	-9371
බ්ලිව්	-9372
▁යොමුකර	-9373
▁වනජීවී	-9374
විතීය	-9375
▁ජිනීවා	-9376
.."	-9377
▁මහවැලි	-9378
ඝා	-9379
▁වංශ	-9380
eat	-9381
▁කැබලි	-9382
▁ගැළපෙන	-9383
3,	-9384
▁හාර	-9385
▁23,	-9386
▁සංඛ්‍යාත	-9387
▁පරිපාලනය	-9388
ශෝ	-9389
▁මේස	-9390
▁ළමයෙක්	-9391
ම්පු	-9392
ිකිත්	-9393
▁අයව	-9394
▁දණ	-9395
හරුවාදා	-9396
++	-9397
ච්ඡා	-9398
▁පිරුණු	-9399
▁ටර්	-9400
▁ගොවීන්	-9401
▁අධිෂ්ඨ	-9402
ශාන්	-9403
ෂී	-9404
▁බොර	-9405
▁අහුව	-9406
▁මාලිංග	-9407
▁පිළිබි	-9408
▁ඔක්සිජන්	-9409
චාරය	-9410
▁එංගලන්තයේ	-9411
▁වැලැක්	-9412
▁තුන්ද	-9413
▁විශ්වවිද්‍යාලය	-9414
▁මිලිටරි	-9415
▁වාසනාවන්ත	-9416
act	-9417
▁සල්	-9418
▁පැවසුවා	-9419
දීප්	-9420
▁දෙයිය	-9421
▁තේරී	-9422
▁පර්යේෂණය	-9423
▁දේහය	-9424
▁දෙවරක්	-9425
▁නිශාන්ත	-9426
▁වැඩිහිටියන්	-9427
▁55	-9428
▁අමෙරිකානු	-9429
ie	-9430
▁නියෝජිතයින්	-9431
▁ලන්ඩන්	-9432
▁හැසිරීම්	-9433
▁ඇඳුම	-9434
▁මොකෝ	-9435
බුදු	-9436
▁සමෘද්ධි	-9437
සික්	-9438
▁චිත්‍රපටයක්	-9439
▁නය	-9440
▁සරලව	-9441
▁පක්ෂයක්	-9442
▁දමන්න	-9443
▁නොගත්	-9444
▁ලාංකේය	-9445
හොඳ	-9446
▁සෙවීම	-9447
▁වසරක	-9448
▁හමුවක්	-9449
ත්‍රාත්ව	-9450
▁පටිගත	-9451
▁රෙගුලා	-9452
▁අපෙ	-9453
කරණයට	-9454
ත්වයන්	-9455
ියගේ	-9456
▁අඟල්	-9457
කිරීම්	-9458
කන්ද	-9459
▁ජිවත්	-9460
▁ඉන්පසුව	-9461
▁ඇළ	-9462
▁පැතික	-9463
▁සොයන	-9464
▁පිළියෙ	-9465
▁පෙරදිග	-9466
▁පුහුණුකරු	-9467
▁සාදන	-9468
▁කරුණානායක	-9469
ලීමට	-9470
▁කොඩි	-9471
කියා	-9472
▁නොපෙනෙන	-9473
elect	-9474
▁යාත්‍ර	-9475
▁වූවාය	-9476
▁ව්‍යුහ	-9477
▁කාර්යයක්	-9478
ුවද	-9479
▁අශ්ව	-9480
▁වෙලේ	-9481
▁තබන්න	-9482
▁රුධිරය	-9483
බිම්	-9484
ගැනීමෙන්	-9485
▁ජනි	-9486
පතින්දා	-9487
▁නත්තල්	-9488
▁චාම	-9489
▁කරන්නද	-9490
▁සීමාවන්	-9491
▁භාණ්ඩා	-9492
▁ක්‍රියාදාම	-9493
▁ගුණාත්මකභාවය	-9494
▁2007	-9495
▁කෙහෙ	-9496
▁ඇද්ද	-9497
ැස්	-9498
▁මෙබඳු	-9499
සමාජ	-9500
▁25,	-9501
▁පාලකයන්	-9502
▁විපර්	-9503
▁කඳවුරු	-9504
▁බෙද	-9505
▁ගැනද	-9506
▁සිදුකල	-9507
ංකි	-9508
▁තැත්	-9509
වික්‍රම	-9510
▁ඇඳිරි	-9511
▁පණ්ඩිත	-9512
▁අතිශයින්ම	-9513
▁ඤා	-9514
pe	-9515
▁හෙළා	-9516
▁ප‍්‍රමා	-9517
▁ඊලඟ	-9518
▁ශිෂ්	-9519
▁ඇෆ්ගනි	-9520
▁සන්සුන්	-9521
විශේෂ	-9522
▁වැල්	-9523
▁මුද්‍රණ	-9524
▁එහෙමයි	-9525
▁ආදායමක්	-9526
▁සාග	-9527
▁බලහත්කාරයෙන්	-9528
▁පුත්ත	-9529
▁බෙදුම්	-9530
▁නුසුදුසු	-9531
සරය	-9532
▁PC	-9533
▁පළකර	-9534
▁අම්ප	-9535
▁කියවීමට	-9536
▁හිදී	-9537
▁අභිලා	-9538
▁මුද්	-9539
▁පරිහරණය	-9540
▁පළවෙනි	-9541
▁බැලුවේ	-9542
▁හිතකර	-9543
▁දියර	-9544
▁මෙලොව	-9545
හයි	-9546
▁අපරා	-9547
▁ජයන්ත	-9548
▁චෙක්	-9549
▁බෙල්ල	-9550
▁නාට්‍යය	-9551
▁බිස්	-9552
▁නෙව	-9553
▁පුරවා	-9554
▁පියාගේ	-9555
ර්ථය	-9556
▁බලන්නට	-9557
▁කාලයකට	-9558
▁කාමරයේ	-9559
▁රේඩියෝ	-9560
▁ඕවා	-9561
▁ඇදහි	-9562
▁අයටත්	-9563
▁විහාරාධිපති	-9564
▁දෘශ්‍ය	-9565
▁ගාස්තුව	-9566
▁දානය	-9567
▁දෙන්නම	-9568
▁US	-9569
ශාලා	-9570
මතුන්	-9571
▁එයාර්	-9572
ෂින්	-9573
රියට	-9574
▁මොකටද	-9575
▁ආතතිය	-9576
▁සුරැක	-9577
▁16,	-9578
▁ජයග්‍රහණ	-9579
▁පුද්ගලයාට	-9580
▁පැවසේ	-9581
▁කරුව	-9582
▁කි‍්‍රයා	-9583
දාව	-9584
▁යකා	-9585
▁කිරු	-9586
▁2005	-9587
▁42	-9588
▁භාවනාව	-9589
▁බැටරි	-9590
▁ලබාගන්නා	-9591
▁දුර්ලභ	-9592
▁ජාතිකයන්	-9593
▁කිසිවෙකුට	-9594
io	-9595
▁හඩ	-9596
▁ධනපති	-9597
මූ	-9598
ළින්	-9599
▁උගේ	-9600
යක්කාර	-9601
ච්චා	-9602
▁සුප්‍ර	-9603
▁දූත	-9604
▁අංශයට	-9605
90	-9606
▁විද්‍යාඥයන්	-9607
able	-9608
ටය	-9609
නිසාද	-9610
▁උනාම	-9611
▁COVID	-9612
',	-9613
▁සංච	-9614
▁ගෙදරින්	-9615
▁නොයෙකුත්	-9616
▁අභ්‍යා	-9617
▁උපුල්	-9618
▁ගෙවී	-9619
▁නෝනා	-9620
▁ගනුදෙනුකරුවන්	-9621
වියා	-9622
▁සාය	-9623
ok	-9624
▁උන්ද	-9625
භාග්‍ය	-9626
▁ප්‍රවර්ධන	-9627
▁ඔව්හු	-9628
▁සුපර්	-9629
▁කැන්	-9630
▁දෙති	-9631
▁මිලකට	-9632
▁ස්වර්ණ	-9633
▁ජර්මානු	-9634
කෑ	-9635
▁නබි	-9636
▁ජයසිංහ	-9637
▁ස්වකීය	-9638
▁පිළිගෙන	-9639
▁පෙරවරු	-9640
▁ස්කන්ධ	-9641
ign	-9642
▁රැවට	-9643
වැඩියාව	-9644
▁පරික්ෂණ	-9645
▁නගරාධිපති	-9646
හැනි	-9647
ාරම්භ	-9648
▁ටීවී	-9649
▁හිරිහැර	-9650
▁වීදුරුව	-9651
▁30,	-9652
▁වුණාම	-9653
lus	-9654
▁app	-9655
▁සඟවා	-9656
▁29,	-9657
▁මීටර	-9658
▁නිරව	-9659
බයි	-9660
▁හැල	-9661
▁De	-9662
▁27,	-9663
▁විෂබීජ	-9664
▁වර්ගයක්	-9665
▁කීවාය	-9666
▁යාමෙන්	-9667
▁නොලැබෙන	-9668
▁අබ්	-9669
▁බොහෝවිට	-9670
▁බ්‍රහ්ම	-9671
වේය	-9672
▁15,	-9673
▁සුමන	-9674
▁යමෙක්	-9675
▁පිළිගන්න	-9676
▁ජේසුස්	-9677
▁උපවාස	-9678
▁තරගයේදී	-9679
වාර්	-9680
▁කොරිය	-9681
භරණ	-9682
17	-9683
iro	-9684
හිදී	-9685
▁තරම	-9686
▁රතන	-9687
පෙළ	-9688
▁මීගමුව	-9689
▁පද්ධතියට	-9690
ණ්‍ය	-9691
▁නමුදු	-9692
▁අගනුවර	-9693
▁මුහුණේ	-9694
ame	-9695
ight	-9696
▁සාක්	-9697
▁හැඳින්වෙන	-9698
ත්ය	-9699
▁වෛරස	-9700
▁යක්ෂ	-9701
▁අනාගතයේදී	-9702
▁මූලධර්ම	-9703
▁චො	-9704
▁රවු	-9705
▁ඇමෙරිකාව	-9706
ාරය	-9707
▁මැණික	-9708
ලොග්	-9709
▁කාළ	-9710
▁අසාධාරණ	-9711
▁දේශප්‍ර	-9712
▁සිනමාවේ	-9713
1,	-9714
▁කමෙන්	-9715
▁පරිශීල	-9716
▁මැතිවරණයට	-9717
▁කාලෙකට	-9718
▁ගීය	-9719
▁ලේසි	-9720
ෙකින්	-9721
▁කතාකර	-9722
නාත්	-9723
නිමි	-9724
▁ආදරයෙන්	-9725
▁රෝගීන්ට	-9726
▁am	-9727
▁දත	-9728
▁එකකුත්	-9729
▁පහසුකම	-9730
▁ඉදිකිරීම	-9731
▁ලැබෙන්න	-9732
▁පටහැනි	-9733
▁උදාහරණය	-9734
මුවෙන්	-9735
විරත්න	-9736
▁මධ්‍යස්ථ	-9737
▁වින්ඩෝස්	-9738
▁බෙල්	-9739
▁පණිවිඩයක්	-9740
▁හැඳුනු	-9741
▁ආණ්ඩුවෙන්	-9742
රිත	-9743
▁අපනයනය	-9744
▁දෙමව්පිය	-9745
▁විස්තරයක්	-9746
▁නොගන්නා	-9747
▁නිර්ම	-9748
▁17,	-9749
▁Res	-9750
▁ආරිය	-9751
▁ටු	-9752
▁උවමනා	-9753
▁ගැටුම	-9754
▁අත්කර	-9755
▁නඩුවේ	-9756
▁ඉල්ලුම	-9757
යේම	-9758
▁පිටපත	-9759
▁උග්‍ර	-9760
▁සමයේදී	-9761
▁සෑහෙන්න	-9762
▁යාපනයේ	-9763
▁ටියුබ්	-9764
ඩරල්	-9765
භාවයට	-9766
▁රාජ්‍යයක්	-9767
▁තනිව	-9768
▁මිදු	-9769
ීමය	-9770
▁ඛේදවා	-9771
▁දායකත්වයක්	-9772
▁ළං	-9773
▁ජයසේකර	-9774
▁විධ	-9775
▁හුදෙ	-9776
▁එක්කෝ	-9777
▁කරගත්ත	-9778
▁ශාලාවේ	-9779
▁ව්‍යාපෘතියක්	-9780
ube	-9781
▁සමානව	-9782
▁ගාල	-9783
▁ගහනවා	-9784
▁කිව්වම	-9785
▁පරික්ෂා	-9786
▁ප්‍රබන්ධ	-9787
▁පමුණ	-9788
▁දැකපු	-9789
සමහර	-9790
▁(10	-9791
▁බද්ද	-9792
ුවර්	-9793
▁හොයලා	-9794
▁පුද්ගලයාගේ	-9795
▁මුසු	-9796
▁අනුපාත	-9797
▁රූපලාව	-9798
ඊට	-9799
▁එයාව	-9800
▁ස්පාඤ්ඤ	-9801
▁උපාධිධාර	-9802
▁වැලික	-9803
▁නිවේදනයේ	-9804
▁මේවන	-9805
▁ධම්මික	-9806
සිල	-9807
ශ්වාස	-9808
▁වැදගත්ය	-9809
▁ප්‍රවේශය	-9810
▁මාර්ගගත	-9811
▁පිරිත්	-9812
▁ටේ	-9813
වාදිය	-9814
ාන්තික	-9815
▁මිනිසාගේ	-9816
▁සැකසීම	-9817
▁ජන්ම	-9818
▁තේමාව	-9819
▁පැත්තකට	-9820
▁හමුවකදී	-9821
▁අල්ලාගෙන	-9822
▁පුත්	-9823
▁ගෙඩිය	-9824
ටිප	-9825
▁කයි	-9826
ිකයින්	-9827
ond	-9828
▁වැසිකි	-9829
▁මාත්‍රාව	-9830
▁තමන්ගේම	-9831
▁පිටුවේ	-9832
▁ක්‍රියාවන්	-9833
ෙව්	-9834
▁අනතුරක්	-9835
▁ඇමෙරිකා	-9836
▁ත්‍රිවිධ	-9837
▁නඟ	-9838
▁හෙරො	-9839
▁අසීමිත	-9840
▁ආබාධිත	-9841
lim	-9842
ර්ක්	-9843
▁චැන	-9844
▁චාරිත්‍ර	-9845
▁ශ්‍රව	-9846
▁ad	-9847
ෑරුම්	-9848
▁පත්කළ	-9849
▁පණිවිඩය	-9850
▁ඇතුලෙ	-9851
▁කෙනෙකුගේ	-9852
▁සම්පුර්ණ	-9853
▁යාත්‍රා	-9854
▁පරිශීලකයින්	-9855
මුල	-9856
▁අනුශා	-9857
▁ක්ෂේත්‍රයට	-9858
වින්ද	-9859
AR	-9860
ාගේ	-9861
▁ලක්ෂණය	-9862
▁වෙර	-9863
▁බදුල්ල	-9864
▁සිදුකිරීමට	-9865
__	-9866
තූන්	-9867
▁වෛද්‍යවරු	-9868
▁රටින්	-9869
era	-9870
හං	-9871
▁උද්ඝෝෂ	-9872
▁පෞරු	-9873
▁ව්‍යාපෘතියේ	-9874
ෆිස්	-9875
▁ගංගා	-9876
▁විප්ල	-9877
▁ගොවී	-9878
▁උපශාන්ත	-9879
▁අසේ	-9880
▁පිටියේ	-9881
▁විශ්වාසභංග	-9882
▁ෆී	-9883
??	-9884
▁දැව	-9885
▁කාලෙක	-9886
▁නැංවීම	-9887
▁ක්ල	-9888
▁වලා	-9889
▁සියදිවි	-9890
▁කළෙමි	-9891
IC	-9892
ual	-9893
ස්සන	-9894
▁අම්පාර	-9895
▁සතුටුයි	-9896
▁වාහනේ	-9897
▁ප්‍රමාණයේ	-9898
▁කලාපීය	-9899
▁හෙයිනි	-9900
▁පෙත්සම	-9901
▁අග්	-9902
ාපන	-9903
▁දේට	-9904
▁සම්ප්‍රේෂ	-9905
▁දීප	-9906
▁අපයෝජ	-9907
▁අහනවා	-9908
▁සුවපත්	-9909
රතන	-9910
▁සාල	-9911
▁නංවා	-9912
දිවයි	-9913
▁නැන්ද	-9914
▁සුඛෝප	-9915
▁දුරකතනය	-9916
▁සනත්	-9917
▁කරන්නැයි	-9918
▁24,	-9919
▁ජීවී	-9920
▁සූදු	-9921
▁බවටද	-9922
▁කොල්ලා	-9923
▁මාතලේ	-9924
▁වහල්	-9925
▁රාමනායක	-9926
▁කොංග	-9927
▁කොමිසමට	-9928
▁සයිබර්	-9929
▁තෘප්තිමත්	-9930
▁කුණා	-9931
▁එනව	-9932
▁ඒවායින්	-9933
සරණය	-9934
▁හදුන්වා	-9935
▁සෞදි	-9936
▁ඕනා	-9937
▁එන්ජි	-9938
▁තක්සේරු	-9939
▁සාමූහ	-9940
දික	-9941
▁නිප	-9942
▁වීරසිංහ	-9943
ීමටත්	-9944
මැත්තා	-9945
▁විවාද	-9946
▁මක්නිසාද	-9947
▁විලාසිතා	-9948
▁වෙනකම්	-9949
‍ටු	-9950
මතික	-9951
ගෑ	-9952
▁දිරිමත්	-9953
▁මොහොතකට	-9954
IN	-9955
▁ගෞතම	-9956
▁වලි	-9957
▁කමට	-9958
org	-9959
▁තිබුනත්	-9960
ෝග්‍ර	-9961
▁කොදෙව්	-9962
▁තුලට	-9963
▁සිදුවූයේ	-9964
රියේ	-9965
▁දැක්කේ	-9966
▁අලෙවිකරණ	-9967
▁පියතුමා	-9968
▁හදල	-9969
▁Sub	-9970
නාවේ	-9971
▁වික‍්‍රම	-9972
▁පුතේ	-9973
▁රුසියාවේ	-9974
▁ලාංකිකයන්	-9975
▁සාහිත්‍යය	-9976
▁මුකුත්	-9977
▁බෙදාහැර	-9978
▁ගංජා	-9979
▁ඉමහත්	-9980
▁පුලුවන්ද	-9981
▁විහාරයේ	-9982
▁සහකරු	-9983
කර්ම	-9984
නල්ඩ්	-9985
▁දීප්තිමත්	-9986
▁ඥාතීන්	-9987
▁මතවාද	-9988
▁ලැබුනේ	-9989
▁මැදි	-9990
▁කිවහොත්	-9991
▁හෙද	-9992
▁සිටිනා	-9993
▁comment	-9994
▁ලිවීම	-9995
▁අම්මලා	-9996
▁දුරින්	-9997
▁දුටුව	-9998
▁ක්ෂුද්‍ර	-9999
▁ඇලු	-10000
▁පඬ	-10001
▁වැන්න	-10002
බද	-10003
▁නෛ	-10004
▁කොටින්ම	-10005
▁Lab	-10006
▁හයේ	-10007
▁තෙන්න	-10008
▁වෙච්චි	-10009
▁iPhone	-10010
▁En	-10011
indows	-10012
▁කොරියාව	-10013
▁අපිටත්	-10014
▁යුද්ධයේ	-10015
▁දියවැඩියාව	-10016
▁අසුන්	-10017
▁වන්නි	-10018
▁සොරකම්	-10019
දිලි	-10020
▁හික්	-10021
▁හඬින්	-10022
uw	-10023
ප්පෙ	-10024
▁කාරණාව	-10025
▁අඟහරුවාදා	-10026
▁නොදු	-10027
▁දිනට	-10028
▁ලොක්	-10029
▁සාක්‍ෂ	-10030
▁ගුණසේකර	-10031
▁·	-10032
ම්බු	-10033
▁ලෙසම	-10034
▁නාඩ	-10035
▁කොට්ට	-10036
▁නොකරන්නේ	-10037
▁කියති	-10038
▁මෙසේද	-10039
▁විකල්පය	-10040
▁හිටියත්	-10041
▁හැකිව	-10042
▁බලාගාර	-10043
ork	-10044
▁දඩුවම්	-10045
▁අවස්ථාවකදී	-10046
‍ට	-10047
▁ගෙන්න	-10048
▁සංයෝග	-10049
▁රෙගුලාසි	-10050
▁ආසියා	-10051
▁28,	-10052
ඳිය	-10053
▁නිවසක්	-10054
▁අන්තර්ජාලයේ	-10055
!!!	-10056
▁තමිල්	-10057
▁භික්ෂු	-10058
▁සංරක්ෂණය	-10059
▁න්‍යෂ්ටික	-10060
▁පාලිත	-10061
▁ප්‍රතිචාරයක්	-10062
▁රාජධානිය	-10063
▁ක්‍ෂේත්‍ර	-10064
▁ආරක්‍ෂා	-10065
ටුපොළ	-10066
▁සැරේ	-10067
▁සියවස	-10068
පොත	-10069
▁පලි	-10070
ඉන්	-10071
▁තත්ත්වයකට	-10072
▁පැත්තකින්	-10073
▁39	-10074
▁අහම්බ	-10075
▁පුෂ්ප	-10076
▁වලටත්	-10077
▁මාතෘකා	-10078
▁පැවසු	-10079
▁රියදුර	-10080
▁දසුන්	-10081
▁කසළ	-10082
▁ලස්සනයි	-10083
▁කෝවිඩ්	-10084
▁සම්පුර්	-10085
▁දෙදෙනකු	-10086
▁www	-10087
▁හෝමෝ	-10088
▁කලාතුර	-10089
▁කෘෂිකාර්මික	-10090
▁ඇමතුමක්	-10091
▁ගෘහස්ථ	-10092
▁හෙරොයින්	-10093
▁වැඩමු	-10094
ටීටී	-10095
▁ආන්ද	-10096
▁මගී	-10097
ුවොත්	-10098
ategory	-10099
▁මාළි	-10100
ence	-10101
▁බැරිය	-10102
▁වැඩිපුරම	-10103
▁සමාලෝචනය	-10104
▁හඹා	-10105
▁පොලො	-10106
▁රැකවරණය	-10107
පිටියේ	-10108
▁අස්ථි	-10109
බලන	-10110
▁සෙර	-10111
▁පොළොව	-10112
unish	-10113
බුන්	-10114
රයෙකු	-10115
▁විශිෂ්ඨ	-10116
▁ඩයි	-10117
▁sh	-10118
▁පනතේ	-10119
රාම	-10120
ිණි	-10121
කයින්ගේ	-10122
▁නිෂ්පාදකයා	-10123
▁කොළඹට	-10124
▁දක්වන්න	-10125
ays	-10126
,”	-10127
500	-10128
▁පප	-10129
ණියට	-10130
▁දෙවියන්ගේ	-10131
▁ඌට	-10132
▁දෙනාටම	-10133
▁ශේෂ	-10134
▁26,	-10135
▁පැවැත්විණි	-10136
▁සවු	-10137
▁සැසි	-10138
▁හිතුන	-10139
▁පරිගණකය	-10140
▁ආයෙමත්	-10141
▁වික්ටර්	-10142
ලංකා	-10143
පයේ	-10144
▁මුදලට	-10145
වරණයක්	-10146
වම්	-10147
▁අවධාන	-10148
▁පුණ්‍ය	-10149
▁රෑට	-10150
▁ගණනාවක	-10151
▁පෙට්ටි	-10152
▁මකා	-10153
▁ආවත්	-10154
▁හෙමින්	-10155
▁අනුග්‍රහය	-10156
▁ප්‍රියන්ත	-10157
▁සොල්	-10158
▁මතකයේ	-10159
▁පරක්කු	-10160
▁සෙබළු	-10161
▁පුපුරා	-10162
▁පිළිගන්නා	-10163
▁සංසාර	-10164
ියකු	-10165
ඇල්ල	-10166
▁මුත්‍රා	-10167
▁පිළිබිඹු	-10168
▁කරද්දි	-10169
16	-10170
▁පරිසරයක්	-10171
▁සමනය	-10172
ගමගේ	-10173
ක්ෂයට	-10174
▁නාය	-10175
▁සංඝරත්	-10176
IS	-10177
▁ද්රව්ය	-10178
▁අවසරය	-10179
▁ඉවහල්	-10180
▁රජ්	-10181
▁එක්වූ	-10182
තියන්	-10183
▁මායිම්	-10184
පස්	-10185
ලූශා	-10186
ලියාව	-10187
▁අනෙකා	-10188
▁43	-10189
▁ඇග	-10190
ගෙත්	-10191
▁තිබුනෙ	-10192
▁හිමිකරු	-10193
ෙති	-10194
හාව	-10195
▁සන්ධාන	-10196
▁තරඟය	-10197
▁තීන්ත	-10198
සුවක්	-10199
▁නැමති	-10200
▁මෙනි	-10201
නියේ	-10202
hotos	-10203
බුද්ධ	-10204
▁හොල්	-10205
▁කොල්ලෝ	-10206
▁සිනමාපට	-10207
▁තාක්‍ෂණය	-10208
▁වෛද්ය	-10209
▁විටෙකත්	-10210
වැව	-10211
4,	-10212
ode	-10213
▁Off	-10214
ත්වැඩියා	-10215
භෝගී	-10216
▁නින්දට	-10217
▁ගණනක	-10218
▁හමුවන	-10219
▁නාට්‍යයේ	-10220
ණින්	-10221
වුනේ	-10222
▁මෙන්ඩා	-10223
▁ඉස්ලාමීය	-10224
▁ගනියි	-10225
▁සෞන්ද	-10226
▁ශ්‍රාව	-10227
▁ශබ්දය	-10228
කොළඹ	-10229
▁සිල්ල	-10230
▁චලනය	-10231
▁Tags	-10232
▁නෞක	-10233
▁සරි	-10234
▁පැනලා	-10235
▁තරගාවලියට	-10236
▁යුතුකම	-10237
▁එකඟතාව	-10238
▁කාන්ත	-10239
▁ගත්තත්	-10240
▁දීමනාව	-10241
▁ගණු	-10242
ජික්	-10243
▁ගනුදෙනුව	-10244
▁සත්තු	-10245
▁නළුව	-10246
▁හිත්	-10247
විරෝධී	-10248
▁ඉදිරිපස	-10249
▁පුත්තලම	-10250
▁පරිච්ඡේද	-10251
▁දිල්	-10252
▁දෙපැත්ත	-10253
දාර	-10254
▁ඕනම	-10255
ෂල්	-10256
▁නිකම්	-10257
▁මතින්	-10258
▁දිලී	-10259
▁සම්බන්ධී	-10260
▁අලුතෙන්	-10261
▁පන්දුවට	-10262
▁ජීවීන්	-10263
▁පරිවර්තන	-10264
.“	-10265
▁පෙත්ස	-10266
▁බැරිද	-10267
▁විඳීමට	-10268
▁ගැනිමට	-10269
▁තනිවම	-10270
▁නොය	-10271
▁කෙටුම්පත	-10272
▁කියමු	-10273
▁නවකතා	-10274
▁මහේන්ද්‍ර	-10275
සීන්	-10276
▁චූටි	-10277
කෙන	-10278
▁දඹ	-10279
▁තන්	-10280
▁රාජපක්ෂගේ	-10281
ව්වට	-10282
▁ගෙනැ	-10283
▁හැරිය	-10284
ජාන	-10285
▁හුදු	-10286
▁ඉන්නකොට	-10287
▁හැඩය	-10288
▁ප්‍රශ්නෙ	-10289
▁ලද්ද	-10290
▁පරාස	-10291
▁ඒත්තු	-10292
ාරක්ෂිත	-10293
▁අභිරු	-10294
▁පසෙක	-10295
CD	-10296
▁එජාපය	-10297
▁තරුණයන්	-10298
තිකරු	-10299
▁එතුමාගේ	-10300
▁ප්‍රමාණයට	-10301
▁වැහි	-10302
▁දාගන්න	-10303
▁සලසයි	-10304
▁කාය	-10305
▁බංක	-10306
▁දමමින්	-10307
▁වූවන්	-10308
▁සතියක්	-10309
▁දැමීමේ	-10310
▁මායා	-10311
▁නිසාවෙනි	-10312
▁දෙදෙනාගේ	-10313
▁පෘතුගී	-10314
▁බඹ	-10315
▁සාධකයක්	-10316
▁නොකල	-10317
පුන්	-10318
▁අද්විතීය	-10319
තලා	-10320
▁සමබර	-10321
ld	-10322
▁ත‍්‍රස්ත	-10323
▁පුවතක්	-10324
▁සනි	-10325
▁රංගනයෙන්	-10326
▁සැකකාර	-10327
▁හොරකම්	-10328
orm	-10329
▁250	-10330
▁සමලිංගික	-10331
▁බෙර	-10332
▁දරුවෙකු	-10333
▁කොට්ඨාස	-10334
▁වැඩේට	-10335
▁පොම්ප	-10336
▁කොල්ලො	-10337
▁ධනු	-10338
ong	-10339
▁pm	-10340
▁දිලි	-10341
▁වර්ෂය	-10342
ත්තම්	-10343
▁දික්ක	-10344
▁කිසිවෙක්	-10345
▁පිළිගැනීමට	-10346
රුවල	-10347
▁ඇන්ටි	-10348
................	-10349
▁වැඩසටහනේ	-10350
▁විත්	-10351
▁193	-10352
▁තිබුනු	-10353
▁වාතය	-10354
▁වියට්	-10355
▁ස්ථාවරය	-10356
▁ක්රිය	-10357
▁අනියම්	-10358
tern	-10359
apiro	-10360
▁බොරුවක්	-10361
▁ලසන්ත	-10362
▁සොයාගත්	-10363
▁සමාජීය	-10364
ුනේ	-10365
▁බලකාය	-10366
▁රාමුව	-10367
▁පරිපාල	-10368
▁සුන්දරත්වය	-10369
▁තිබුනි	-10370
▁Image	-10371
▁ඔල	-10372
▁ලබාදීමේ	-10373
▁විකිණීම	-10374
▁මනුස්සයෙක්	-10375
▁කඩුල්ල	-10376
▁වසන්	-10377
">	-10378
ෙද්දි	-10379
▁ලැබිලා	-10380
▁ලිබරල්	-10381
ින්ගේ	-10382
▁සමීපව	-10383
එත	-10384
ක්කම්	-10385
▁සාක්ක	-10386
▁ඇත්දැයි	-10387
ance	-10388
▁වාහනයක්	-10389
ාන්ස්	-10390
▁start	-10391
▁කුමන්ත්‍රණ	-10392
විධාන	-10393
▁කසාද	-10394
▁ආරක්ෂාවට	-10395
▁බිං	-10396
▁ක්‍රීඩාවේ	-10397
▁ලියුම්	-10398
ාවලි	-10399
▁දෙගුණ	-10400
ත‍්‍රී	-10401
▁ජාතිවාදය	-10402
▁පේරාදෙණිය	-10403
▁ලාං	-10404
ේදී	-10405
AM	-10406
▁සිටින්නට	-10407
▁ප්‍රහාරයෙන්	-10408
13	-10409
▁වනවිටත්	-10410
▁නිරි	-10411
▁Tr	-10412
▁නොතේ	-10413
න්විත	-10414
▁කල්ලි	-10415
▁සත්කාරක	-10416
ාර්ශ	-10417
ව්‍ර	-10418
▁කකා	-10419
ලයෙන්	-10420
ශීර්	-10421
▁මල්ලී	-10422
▁පළවූ	-10423
දෙන්නට	-10424
▁අනුගාම	-10425
▁නිර්මාතෘ	-10426
▁ඉන්දියා	-10427
unishapiro	-10428
▁සම්බන්ධතාව	-10429
▁ගජ	-10430
මන්ති	-10431
ark	-10432
▁අකිල	-10433
▁බඳුන්	-10434
▁පියයුරු	-10435
▁බිස්නස්	-10436
▁රද	-10437
▁නෞකාව	-10438
▁පෙළෙන	-10439
▁සමස්තයක්	-10440
වර්ග	-10441
▁අවස්තාව	-10442
▁සැහැල්ල	-10443
▁පවුලූශා	-10444
▁ගම්ම	-10445
▁චිකිත්	-10446
ශු	-10447
න්නාන්	-10448
▁කිරිමේ	-10449
▁සතුරු	-10450
▁කන්ට	-10451
▁තේරුමක්	-10452
ගරට්	-10453
▁තිබ්බෙ	-10454
▁තනා	-10455
CC	-10456
▁පුදුමයට	-10457
▁තඹ	-10458
▁කප්ප	-10459
▁යුදෙව්	-10460
99	-10461
ya	-10462
▁කරවීම	-10463
▁විශ්‍රාමික	-10464
▁පංති	-10465
▁ඉල්ලන	-10466
▁මෙනෙහි	-10467
▁නායකත්වයෙන්	-10468
▁නවති	-10469
▁මහින්	-10470
▁පුද්ගලයෙකුට	-10471
▁ප්රශ්	-10472
EO	-10473
▁Bl	-10474
වන්නා	-10475
▁සෙනෙහස	-10476
▁මනාල	-10477
▁වාර්ෂිකව	-10478
▁වලක්වා	-10479
▁පැත	-10480
තාප	-10481
▁බලෙන්	-10482
භාවයෙන්	-10483
ටරය	-10484
▁අවයව	-10485
ේට්	-10486
▁එක්කර	-10487
▁පැමිණේ	-10488
▁විමසූ	-10489
▁පිරිමිය	-10490
▁කෝප්	-10491
▁ප්‍රහාරයට	-10492
පසින්	-10493
▁පළතුරු	-10494
:30	-10495
▁එලෙසම	-10496
▁වීදි	-10497
▁ක‍්‍රමය	-10498
▁ඉඳගෙන	-10499
▁ආඥා	-10500
▁ප්රකාශ	-10501
▁පත්වීමට	-10502
itle	-10503
▁අයවැ	-10504
▁පෙන්නන්න	-10505
▁පැහැරගෙන	-10506
▁හතක්	-10507
▁ෆො	-10508
සියස්	-10509
▁දඹුල්ල	-10510
▁සුන්	-10511
▁කලාවේ	-10512
ගෙට	-10513
ාරද	-10514
▁එංගලන්තය	-10515
▁අනුන්	-10516
▁දස්කම්	-10517
▁පළමුවෙන්	-10518
▁Wh	-10519
▁සංචාරකයන්	-10520
▁හැදින්	-10521
▁ප්‍රතිපල	-10522
වුණේ	-10523
▁වංචාව	-10524
▁අනුන්ගේ	-10525
ටීටීඊ	-10526
▁සැකය	-10527
▁හෙට්ටි	-10528
▁උත්සවයට	-10529
▁පලමු	-10530
▁නිෂ්පාදිත	-10531
▁විප්ලවය	-10532
▁වර්තමානය	-10533
▁තෑග්ග	-10534
▁කියලද	-10535
load	-10536
ඇය	-10537
▁තැපෑ	-10538
▁වක්‍ර	-10539
▁ඔෆිස්	-10540
▁මරාගෙන	-10541
▁දිනාගත්	-10542
▁වැඩිවීම	-10543
▁අංශක	-10544
▁පෙට්ටිය	-10545
▁Sc	-10546
▁ෂා	-10547
▁තහනම	-10548
▁එන්නම්	-10549
▁නදී	-10550
▁අපොහො	-10551
▁රොබෝ	-10552
▁නිදසුනක්	-10553
▁ඇසි	-10554
▁පද්	-10555
▁අනන්ත	-10556
▁පිරිසක	-10557
▁වේදිකාවේ	-10558
▁අසන	-10559
▁සංවත්	-10560
mm	-10561
▁ජුලි	-10562
▁ඉන්ටර්	-10563
▁රාජ්	-10564
▁ගහගෙන	-10565
▁දන්නවද	-10566
▁නපුරු	-10567
24	-10568
ජෝ	-10569
▁දෙයකි	-10570
▁නිවැරැදි	-10571
▁හැඳින්වේ	-10572
▁බ්‍රි	-10573
හාල්	-10574
ata	-10575
▁වාමාංශික	-10576
ථම	-10577
බඩ	-10578
▁දොඩ	-10579
▁මිරි	-10580
▁එකග	-10581
▁හිමියන්ට	-10582
▁චරිතයට	-10583
▁එව්වා	-10584
▁පත්තරේ	-10585
▁පක්‍ෂයේ	-10586
▁නොසන්	-10587
▁අකමැත්ත	-10588
▁රජයක්	-10589
▁56	-10590
බෙල්	-10591
▁ජනයාට	-10592
▁නාලිකාව	-10593
▁තොගය	-10594
▁සම්ප්‍රදාය	-10595
ක්‍රමික	-10596
ෙය	-10597
view	-10598
▁දෑත්	-10599
▁වැදී	-10600
▁පවත්වනු	-10601
▁නැක	-10602
බර්ග්	-10603
▁දාර්ශ	-10604
▁නානායක්කාර	-10605
▁ගයා	-10606
▁ආසාදන	-10607
▁ජර්මනිය	-10608
▁ලදායී	-10609
▁ආර්ථිකයට	-10610
▁වැළැක්වීමේ	-10611
▁රස්තියා	-10612
රන	-10613
▁මවක්	-10614
aya	-10615
▁මහි	-10616
▁මහේෂ්	-10617
හාන	-10618
▁නෙළුම්	-10619
▁හැත්තෑ	-10620
▁cap	-10621
▁භූමිකාව	-10622
ොට්	-10623
▁රෝගා	-10624
.’’	-10625
එෆ්	-10626
▁මිනිස්සුන්	-10627
ics	-10628
▁IS	-10629
▁කලාකරුවන්	-10630
▁පත්තු	-10631
▁සිදුකරනු	-10632
▁මමයි	-10633
▁සිදුවීමට	-10634
▁47	-10635
▁සැපයීමට	-10636
▁සිතිවිලි	-10637
▁ප්‍රශ්නවලට	-10638
▁ෆා	-10639
▁පමණකි	-10640
▁පැවසූහ	-10641
▁ඉන්දියන්	-10642
▁නිහඬව	-10643
▁අප්පච්චි	-10644
▁සම්මේල	-10645
▁පිරිම	-10646
▁දන්ත	-10647
▁ආශීර්	-10648
▁යාන	-10649
edia	-10650
▁යුද්ධයෙන්	-10651
ැන්න	-10652
▁2006	-10653
▁නිපැ	-10654
▁එවැන්නක්	-10655
රයට	-10656
ිරාල්	-10657
▁ව්‍යවස්ථාවක්	-10658
රයන්	-10659
▁සලකන්න	-10660
ජනීය	-10661
▁කුමරිය	-10662
▁ප්‍රතිශක්ති	-10663
▁සැපයුම	-10664
reen	-10665
නයි	-10666
▁කිරීමය	-10667
▁මෙහේ	-10668
▁සතා	-10669
▁සබර	-10670
▁යැයිද	-10671
▁සාධකය	-10672
මර්	-10673
▁එකපාර	-10674
▁ශිෂ්‍යත්ව	-10675
att	-10676
▁සිඳ	-10677
min	-10678
▁යුවළ	-10679
ගෝල	-10680
▁බසින්	-10681
▁බෝනස්	-10682
ණෙනි	-10683
▁ප්‍රචලිත	-10684
▁කඳුකර	-10685
▁සංයුක්ත	-10686
olog	-10687
▁මත්ස්‍ය	-10688
old	-10689
▁කමිටුවක්	-10690
▁මඩකල	-10691
▁අන්දම	-10692
▁කඳවුර	-10693
▁පවුලට	-10694
▁සෞඛ	-10695
▁දේශය	-10696
▁ස්ථානගත	-10697
▁එෆ්	-10698
▁දේශනාව	-10699
▁පසුවය	-10700
NA	-10701
‍්	-10702
▁ස්ටී	-10703
▁පිහිටුවීම	-10704
▁තොගයක්	-10705
▁රිමාන්	-10706
▁පෘථිවිය	-10707
▁කියවල	-10708
▁ෂැ	-10709
▁කුඩ	-10710
▁වාසියක්	-10711
▁arunishapiro	-10712
▁වශයෙනි	-10713
වසන	-10714
▁ගෙල	-10715
▁කර්මය	-10716
▁පාසලට	-10717
▁නැඹුරු	-10718
▁හෘදයා	-10719
▁රාවණා	-10720
▁උද්ධ	-10721
වාය	-10722
▁ලිඛිත	-10723
▁මේකෙ	-10724
ණියක්	-10725
▁පැටවුන්	-10726
▁dur	-10727
▁කුඹුරු	-10728
▁දෙනෙකුගේ	-10729
ඥයන්	-10730
▁සිල්ලර	-10731
▁ගිම්	-10732
▁සාකච්	-10733
▁ස්ටාර්	-10734
ase	-10735
ගමු	-10736
▁වැරැද්දක්	-10737
▁එසේත්	-10738
▁රාහු	-10739
▁වැඩියෙන්ම	-10740
▁වර්ධනයක්	-10741
▁ඥාති	-10742
▁වනතුරු	-10743
ැව	-10744
▁විෂ්	-10745
▁බ්‍රහස්පතින්දා	-10746
▁විගස	-10747
ටුවෙන්	-10748
▁අටක්	-10749
▁රස්සාව	-10750
▁පදවිය	-10751
▁අනවසර	-10752
▁තරමටම	-10753
▁උය	-10754
▁චාරිකාව	-10755
ib	-10756
▁44	-10757
ජිත	-10758
▁සින්දුව	-10759
▁සිරකරුවන්	-10760
▁විකුණන	-10761
කරනය	-10762
කාරයෝ	-10763
▁යටත්ව	-10764
▁සෙයින්	-10765
ලෝන්	-10766
බූ	-10767
ලන්ඩ්	-10768
▁ඇසුර	-10769
▁මේකෙන්	-10770
ස්ටේ	-10771
▁සෘජුවම	-10772
▁ඩෙල්	-10773
▁හැබෑ	-10774
▁ආදරෙයි	-10775
ෆී	-10776
▁කාරයා	-10777
▁විමර්ශනයක්	-10778
▁සවිස්තරාත්මක	-10779
▁කිට්ටු	-10780
▁දයාසිරි	-10781
▁ගොඩනැගීම	-10782
▁Labels	-10783
ult	-10784
▁is	-10785
▁අදහසයි	-10786
▁සැඟවී	-10787
▁දේශගුණික	-10788
-20	-10789
▁බෙදී	-10790
23	-10791
▁නොබලා	-10792
▁ස්කො	-10793
▁බුක්	-10794
▁වජ	-10795
▁නංග	-10796
▁හැදෙන	-10797
▁ක‍්‍රියාව	-10798
▁මෝල්	-10799
▁නැවැ	-10800
▁වාරික	-10801
▁බයික්	-10802
ලාන	-10803
▁ගණනකට	-10804
▁සීයා	-10805
▁එල්ලා	-10806
▁ගෙඩියක්	-10807
▁කාන්තාවන්ගේ	-10808
මාණවත්	-10809
▁මැතිවරණයේදී	-10810
▁ෂෝ	-10811
▁නැව්ගත	-10812
▁ඇතුළට	-10813
▁පුරුද්ද	-10814
▁Select	-10815
▁තරමක	-10816
▁ක්‍රිස්තුස්	-10817
▁බල්ලා	-10818
▁විද්‍යාවේ	-10819
ුවන	-10820
▁සයිට්	-10821
▁ව්‍යවහාර	-10822
▁අගු	-10823
▁තිබියදීත්	-10824
▁සිංදු	-10825
▁ජර්මනියේ	-10826
▁නිරතව	-10827
බිති	-10828
▁සඳහාද	-10829
▁කැටි	-10830
මීනි	-10831
▁ඇරලා	-10832
▁සෙවණ	-10833
රැස්	-10834
▁අසභ	-10835
▁ඕවර	-10836
▁පැවතීම	-10837
▁සංක්‍රමණ	-10838
▁46	-10839
▁සදහ	-10840
▁සබන්	-10841
පින්	-10842
▁ගාලා	-10843
▁පෝස්ට	-10844
▁එනු	-10845
▁සස	-10846
▁සිතූ	-10847
▁ඕස්ට්‍රේලියානු	-10848
▁නෙර	-10849
▁ඔරොත්තු	-10850
▁විශ්ලේෂ	-10851
ටියක්	-10852
▁ධනං	-10853
ක්සික	-10854
ක්‍රෝ	-10855
▁ජොබ්	-10856
▁නවසීලන්ත	-10857
▁පැරැ	-10858
▁පදක්කම්	-10859
▁පුළුවනි	-10860
▁මහතාගෙන්	-10861
▁උද්ඝෝෂණය	-10862
▁සංවිධානයක්	-10863
තීන්ට	-10864
▁ගාණක්	-10865
▁විමසි	-10866
▁මැදින්	-10867
▁හමුවේදී	-10868
▁අමාත්‍යවරුන්	-10869
▁වැල්ල	-10870
▁සැරිසර	-10871
නියාව	-10872
▁ජනමත	-10873
▁නියාමන	-10874
▁පියාසර	-10875
▁සැතපුම්	-10876
ගතු	-10877
▁ඔළුව	-10878
▁මිදී	-10879
▁යන්තම්	-10880
▁තරයේ	-10881
▁ශ්‍රේෂ්ඨාධිකරණ	-10882
▁ගතියක්	-10883
:)	-10884
▁තරණය	-10885
▁ඇතිවී	-10886
ඇයි	-10887
▁කරනකොට	-10888
▁තෙන්නකෝන්	-10889
▁මුදුන්	-10890
icro	-10891
▁හැමදා	-10892
▁තිළි	-10893
▁ලාංඡ	-10894
▁ජයසුන්දර	-10895
▁ආවේණික	-10896
▁නිකායේ	-10897
▁අරමුණක්	-10898
▁😀	-10899
▁මිසයි	-10900
▁වටිනාකම්	-10901
▁අමුද්රව්ය	-10902
▁කිරණ	-10903
▁තේරෙන්නේ	-10904
▁රැසක	-10905
▁ගොල්ල	-10906
▁බ්‍රසී	-10907
▁ආක්‍රමණය	-10908
▁ස්වේ	-10909
▁නිහතමා	-10910
▁දේම	-10911
▁උචිත	-10912
▁රාජකාරිය	-10913
උත්තර	-10914
▁ට්‍රයි	-10915
▁කොමෙන්	-10916
ණුම්	-10917
▁දුටුවේ	-10918
2,	-10919
▁වේලාවට	-10920
▁අපේක්ෂාව	-10921
▁නායකයෙක්	-10922
▁ගය	-10923
▁පඩ	-10924
▁බෝතල	-10925
▁හින්දි	-10926
▁සුඛෝපභෝගී	-10927
▁එවන	-10928
▁පොරොන්දුව	-10929
දිනල්	-10930
▁ලෙන්	-10931
▁රාත්‍රිය	-10932
▁By	-10933
▁පුරාව	-10934
දර්ශනය	-10935
▁වේදනාවක්	-10936
ිනව	-10937
▁සංවිධානයට	-10938
▁වදන	-10939
▁නොගැල	-10940
▁කේස්	-10941
▁ඉල්ලුම්	-10942
▁Ec	-10943
කරලා	-10944
▁සංවාදයක්	-10945
වාට	-10946
▁un	-10947
දියු	-10948
▁වැඩිකර	-10949
▁මාධ්‍යයට	-10950
▁සහයෝගයෙන්	-10951
▁වැළැක්වීමට	-10952
▁පක්‍ෂය	-10953
▁අපා	-10954
▁හිතල	-10955
▁එහිදි	-10956
▁කැලේ	-10957
▁පැතිරීම	-10958
▁පිඟ	-10959
▁දෙමු	-10960
▁බොත්තම	-10961
▁දාර්ශනික	-10962
▁තියල	-10963
▁කුලියට	-10964
▁සුනා	-10965
▁වයිරසය	-10966
▁වට්ටෝරුව	-10967
▁කුමාරතුංග	-10968
▁ආසාවෙන්	-10969
▁දමිළ	-10970
▁පල්ලිය	-10971
▁මයිකල්	-10972
▁ටයිප්	-10973
▁නොඉ	-10974
▁අතරෙ	-10975
පුද්ගල	-10976
▁හර්ෂ	-10977
▁අධ්‍යාත්මික	-10978
▁රහසක්	-10979
▁පිලිතුරු	-10980
▁ප්‍රාන්තයේ	-10981
▁කළෙමු	-10982
ජ්ඣ	-10983
▁Hiru	-10984
කාරයන්	-10985
මිනියම්	-10986
ාවර	-10987
▁හිරේ	-10988
▁නුවන්	-10989
▁බැක්ටීරියා	-10990
▁මහෙස්	-10991
▁එල්ටීටීඊ	-10992
▁දක්‍ෂ	-10993
විනිශ්ච	-10994
▁වැදු	-10995
▁දල්	-10996
▁නිළිය	-10997
නාධාර	-10998
▁නොසැල	-10999
▁දෙකෙහි	-11000
▁ගණනාවකට	-11001
▁වැරදියි	-11002
omm	-11003
▁ගේම්	-11004
▁කාමරයට	-11005
▁සුරතල්	-11006
ප්‍රාප්	-11007
▁ලිවීමට	-11008
▁මචන්	-11009
▁තෝරාගෙන	-11010
▁සූදානමින්	-11011
▁පිදුම්	-11012
▁අවධානයෙන්	-11013
ඥාන	-11014
▁ඩෝ	-11015
▁මංකො	-11016
▁දෙතුන්	-11017
▁කාර්යභාරය	-11018
හූ	-11019
▁නිලධාරියෙක්	-11020
▁කියාගෙන	-11021
ategor	-11022
කස්	-11023
▁ජයක්	-11024
▁බොල	-11025
▁දෙරණ	-11026
▁මියු	-11027
▁පුද්ගලයින්ට	-11028
▁දෙවියන්ට	-11029
ජාව	-11030
ධර්මය	-11031
▁පෙරහැර	-11032
ර්තනය	-11033
ඔව්	-11034
▁අං	-11035
▁කෙරෙනවා	-11036
▁ධනවත්	-11037
▁පොළොන්නරුව	-11038
▁වාරයක්	-11039
▁සිරුරට	-11040
▁එළිදැක්	-11041
එහෙත්	-11042
▁වැටහ	-11043
▁තතු	-11044
▁තේරෙන	-11045
▁සැලකේ	-11046
▁චතුරංග	-11047
▁ටැංකි	-11048
▁පැතිකඩ	-11049
▁සංස්ථාවේ	-11050
▁කලාවට	-11051
▁පෙරා	-11052
▁ජලයෙන්	-11053
▁ලිංගිකත්වය	-11054
▁පූජක	-11055
▁තුළම	-11056
▁වචනයෙන්	-11057
හැන්	-11058
▁මේදය	-11059
විපාක	-11060
▁මහල්	-11061
▁මතකයන්	-11062
යහ	-11063
නගේ	-11064
tr	-11065
▁ආදා	-11066
▁ඩේවිඩ්	-11067
▁බියෙන්	-11068
තාන්‍ය	-11069
▁ශාස	-11070
▁හැකිවේ	-11071
▁ආයෙම	-11072
▁උප්ප	-11073
dit	-11074
ලිවුඩ්	-11075
▁විදුහල	-11076
▁කුජ	-11077
▁මොළයේ	-11078
▁ඉතාලියේ	-11079
▁අක්ෂර	-11080
▁උපත්	-11081
▁ප්‍රඥ	-11082
විඞ්	-11083
රුවෝ	-11084
▁තත්ත්වයෙන්	-11085
▁රිෂාඩ්	-11086
▁හතළි	-11087
▁හෙලික	-11088
▁ද්‍රෝ	-11089
eature	-11090
▁එකිනෙකාට	-11091
yst	-11092
▁ගුවන්තොටුප	-11093
ha	-11094
▁රූගත	-11095
▁අනතුරට	-11096
ගත්තු	-11097
▁හාස්‍ය	-11098
▁භික්ෂුව	-11099
▁නීත්‍යානුකූල	-11100
ක්‍රි	-11101
▁තිඛ	-11102
▁ජයග්‍රහණයක්	-11103
▁කුස්ස	-11104
▁අන්තිමේ	-11105
▁දේහ	-11106
▁අල්ප	-11107
▁සොයි	-11108
▁එකිනෙක	-11109
සයිඩ්	-11110
▁සනීපාර	-11111
▁මේද	-11112
▁මදක්	-11113
▁බලයේ	-11114
▁පිහිටීම	-11115
▁ප්‍රදේශයේදී	-11116
▁විවෘතව	-11117
▁පත්කිරීම	-11118
▁පදය	-11119
▁දිළි	-11120
▁වෙහෙර	-11121
▁උපකල්පනය	-11122
/201	-11123
▁උලෙ	-11124
▁අංශු	-11125
▁යෝජනාවට	-11126
▁ජයග‍්‍රහ	-11127
AC	-11128
ages	-11129
▁ශතක	-11130
යුක්ත	-11131
▁One	-11132
චිත්‍ර	-11133
▁කිරිබ	-11134
▁බිර	-11135
▁රෝගයට	-11136
▁හිතන්	-11137
මීම	-11138
▁ඇරෙන්න	-11139
▁විපර්යාස	-11140
▁ඉඩම	-11141
▁ගීතයේ	-11142
▁බලපත්‍රය	-11143
▁ඉගැන්වීම්	-11144
▁තුර	-11145
වෙන්නෙ	-11146
▁ජනයාගේ	-11147
▁එන්ජින්	-11148
▁Rep	-11149
▁ප්‍රදේශයෙන්	-11150
▁සිදුරු	-11151
▁මිනිසාට	-11152
▁සංසිද්ධ	-11153
-4	-11154
▁වීරයා	-11155
නිර්මා	-11156
බුල්	-11157
ස්සට	-11158
දානන්ද	-11159
▁මේව	-11160
▁.....	-11161
▁ප්‍රභව	-11162
▁සිගරට්	-11163
▁රූපවාහිනිය	-11164
ලීස්	-11165
▁පුත	-11166
ox	-11167
පාණන්	-11168
▁මුහුන	-11169
▁ෆෙඩරල්	-11170
ළියට	-11171
▁පිලිබද	-11172
▁සඳහාත්	-11173
▁අවැසි	-11174
pp	-11175
▁ඉන්දුනී	-11176
යිද	-11177
රථ	-11178
▁කාදිනල්	-11179
▁සමාජගත	-11180
පණය	-11181
▁රැල්ල	-11182
▁ගියහ	-11183
▁ධර්‍	-11184
▁කතාබහට	-11185
ුවල	-11186
▁සක්‍රිය	-11187
▁අරුණ	-11188
▁පදිංචිව	-11189
▁සන්ධි	-11190
ගත්තේය	-11191
වේදීන්	-11192
▁දේශනය	-11193
▁සොල්දා	-11194
▁නිරවද්‍ය	-11195
රෙන	-11196
▁වර්ධන	-11197
මණ්ඩ	-11198
ථාව	-11199
▁යැවූ	-11200
▁කටහඬ	-11201
රහ	-11202
ලක්ෂ	-11203
▁ආක්‍රමණ	-11204
මග	-11205
▁පිළිබඳවත්	-11206
▁රෝගියා	-11207
▁බැලුවොත්	-11208
▁පන්සල	-11209
▁කනවා	-11210
▁ගානට	-11211
▁වැඩකටයුතු	-11212
එල්සී	-11213
ුවාට	-11214
▁ඔස්	-11215
එතකොට	-11216
▁පාඩුව	-11217
▁මාසයක්	-11218
▁කාපු	-11219
ණායක	-11220
▁බනි	-11221
▁ඇත්තම	-11222
▁Facebook	-11223
▁සූරා	-11224
▁ස්වාමින්	-11225
▁ශුභ	-11226
▁වර්ගීකරණය	-11227
▁අභිර	-11228
▁ධනේශ්වර	-11229
▁පාප්	-11230
ෙක්ට්	-11231
▁ගුණයක්	-11232
▁ප්‍රගතිය	-11233
▁වූවත්	-11234
▁ඇසුරෙන්	-11235
කයි	-11236
▁ගඳ	-11237
▁උපේ	-11238
▁අප්පා	-11239
▁විටින්	-11240
▁විසූ	-11241
▁එයත්	-11242
▁ශූරතාව	-11243
මේෂ්	-11244
▁cl	-11245
▁කැත	-11246
▁රාජා	-11247
▁කාලයත්	-11248
▁කපන	-11249
▁දාම	-11250
▁මේසය	-11251
▁බදියු	-11252
▁අනුබද්ධ	-11253
▁නිලධාරීහු	-11254
▁චීනයට	-11255
▁උපද	-11256
තුවක්	-11257
▁මංකොල්ල	-11258
ational	-11259
ස්පර	-11260
▁ඡු	-11261
▁පුනරුත්ථ	-11262
▁මුලතිව්	-11263
▁විකිර	-11264
▁ඇසුව	-11265
▁සංයුතිය	-11266
ER	-11267
▁විපත	-11268
▁කාර්‍ය	-11269
සාධ	-11270
▁ක්රීඩ	-11271
මතය	-11272
▁ලබාදෙන්න	-11273
යන්ද	-11274
▁ජන්ද	-11275
▁ප්‍රයෝජනයට	-11276
▁ස්වී	-11277
ප්පෙරුම	-11278
ක්ෂාව	-11279
▁අවුල	-11280
▁ලෙසිනි	-11281
▁සිද්ධීන්	-11282
▁හිමිව	-11283
▁සහනාධාර	-11284
▁පත්වේ	-11285
▁ගණනින්	-11286
▁ගතයුතු	-11287
▁නිලධාරියෙකු	-11288
▁මාස්ටර්	-11289
▁ගැනම	-11290
▁ජනරාල්වරයා	-11291
▁රේඛා	-11292
▁හැරි	-11293
▁තොට	-11294
▁ගුණතිලක	-11295
▁විකාශනය	-11296
ක‍්‍රම	-11297
▁ආදරයක්	-11298
▁සංචාරකයින්	-11299
▁එමීර්	-11300
▁rating	-11301
▁වැඩකරන	-11302
▁ප්‍රතිපත්තියක්	-11303
▁මාවතේ	-11304
▁සඟර	-11305
▁ශෛ	-11306
▁එවන්න	-11307
▁කුසලානය	-11308
▁කරන්ඩ	-11309
▁ඉන්නවද	-11310
▁පැවැත්වේ	-11311
▁ඉතාලි	-11312
▁උපහාර	-11313
▁පසුබිම්	-11314
▁පහසුය	-11315
▁කප්පාදු	-11316
▁ඉලෙක්ට්‍රො	-11317
▁කන්ඩා	-11318
▁වැඩසටහනට	-11319
බය	-11320
නෙත්	-11321
▁කරගන්නේ	-11322
▁සම්බන්ධතාවයක්	-11323
යාමට	-11324
▁අදට	-11325
▁කය	-11326
▁මාරාන්තික	-11327
▁රෝගයක්	-11328
▁රාත්‍රි	-11329
▁උපාධ	-11330
▁4/5	-11331
▁ව්‍යාපාරයට	-11332
▁නැඟී	-11333
▁බෝල්	-11334
az	-11335
▁ලබාදු	-11336
▁තරගයක්	-11337
▁හිට්ලර්	-11338
▁මධ්ය	-11339
▁සහතිකයක්	-11340
▁සමාජයක	-11341
▁ක්ෂේත‍්‍ර	-11342
▁රහතන්	-11343
▁කොලො	-11344
▁චෝදනාවක්	-11345
▁නරඹන්න	-11346
▁වත්තේ	-11347
▁තබමින්	-11348
▁බල්	-11349
▁පර්වත	-11350
▁යුරෝපය	-11351
තීය	-11352
පුරට	-11353
ටුහන්	-11354
▁යහපාලනය	-11355
rain	-11356
▁අපූ	-11357
▁වෙළඳපල	-11358
▁උදව්වක්	-11359
▁තුන්වැනි	-11360
▁Vig	-11361
▁කළාට	-11362
ෙං	-11363
▁ප්‍රෝට	-11364
‍්‍රා	-11365
▁යුද්ධයක්	-11366
ෑමෙන්	-11367
▁ආශිර්වාද	-11368
එච්	-11369
ක්‍රො	-11370
▁ඇතුව	-11371
▁pr	-11372
තුමාට	-11373
▁ගෙට	-11374
▁ප්‍රභූ	-11375
▁ශේ	-11376
▁තොල්	-11377
▁මොරට	-11378
▁බ්ලූ	-11379
▁හිතුණා	-11380
▁දයානන්ද	-11381
▁සංකීර්ණය	-11382
▁ඇස්ත	-11383
▁තිබුණෙ	-11384
▁ඥානය	-11385
▁ධුරයට	-11386
මැද	-11387
▁කැණීම්	-11388
ස්කාර	-11389
▁ජෝති	-11390
▁සෙවන	-11391
▁සෙවීමට	-11392
▁වගෙයි	-11393
▁සූරිය	-11394
se	-11395
▁එඩ්	-11396
▁ගාලු	-11397
▁නාලිකා	-11398
▁සියලූම	-11399
▁අප්‍රිකාව	-11400
▁ආත්	-11401
ත්‍යාගය	-11402
ිමත්	-11403
ගති	-11404
▁රේගු	-11405
හීමකට	-11406
▁කථිකා	-11407
▁උදර	-11408
▁පාඩුවක්	-11409
ats	-11410
▁කාඩ්පත්	-11411
▁වටී	-11412
▁ධූරය	-11413
▁පේන්නේ	-11414
▁ඇසුරින්	-11415
▁යුත්ත	-11416
▁උත්තරයක්	-11417
▁ක්‍රීඩකයා	-11418
▁කිහිපයක්ම	-11419
ට්‍රල්	-11420
ගෙම	-11421
▁පටල	-11422
▁ඡායාරූපයක්	-11423
▁ගත්තම	-11424
තාවයෙන්	-11425
▁j	-11426
▁පාරම්ප	-11427
වාදි	-11428
▁5000	-11429
▁ජනනය	-11430
▁බිහිසුණු	-11431
තොට	-11432
▁අඳින	-11433
▁Apple	-11434
▁අර්ථක	-11435
ood	-11436
▁ශීර්ෂ	-11437
▁සනිටුහන්	-11438
▁ප්‍රමාණයෙන්	-11439
▁සෙවුම්	-11440
▁විස්තරය	-11441
▁https	-11442
ලාභී	-11443
▁අනුගත	-11444
oin	-11445
▁මිහිරි	-11446
▁අනිකුත්	-11447
▁රහත්	-11448
▁ජනතාවක්	-11449
▁මුලදී	-11450
▁උරා	-11451
▁කාසි	-11452
▁සියල්ලටම	-11453
▁eff	-11454
▁ලියනවා	-11455
▁පසුකාලීනව	-11456
▁ප්‍රධානීන්	-11457
වෙත	-11458
▁ගිවිසුමක්	-11459
▁රජා	-11460
▁ගෙනියන්න	-11461
▁බැඳීම	-11462
▁හැටන්	-11463
ෘත	-11464
▁මෑන්	-11465
▁ඇක්	-11466
▁නොකොට	-11467
▁සාධනය	-11468
▁කැලි	-11469
▁කිරීමද	-11470
▁ක්‍රීම්	-11471
▁අගනා	-11472
ei	-11473
▁එකතුවෙලා	-11474
▁කොයිතරම්	-11475
දියෙන්	-11476
▁සිතනවා	-11477
):	-11478
ung	-11479
▁මසකට	-11480
▁කරන්ට	-11481
▁රැසකට	-11482
▁අංගයක්	-11483
▁සිකුරු	-11484
▁ඉෂ්ට	-11485
▁600	-11486
▁සිරිපාල	-11487
▁හඳුනාගත්	-11488
▁ආවට	-11489
▁පපුව	-11490
▁මඳක්	-11491
▁පාඩමක්	-11492
▁දර්ශනයක්	-11493
▁ආයා	-11494
▁ආරක්‍ෂාව	-11495
▁රිංග	-11496
▁භාරයට	-11497
▁සම්බුද්ධ	-11498
AN	-11499
කිනි	-11500
GB	-11501
▁හැඳි	-11502
▁නිපුණ	-11503
ලුත්	-11504
▁භය	-11505
▁විහිළු	-11506
යාර	-11507
▁අපූර්	-11508
දුවට	-11509
▁අවශ්‍යතාවයක්	-11510
▁වයින්	-11511
▁වගකීමෙන්	-11512
▁ක්‍රියාකාරීත්වය	-11513
▁උදාර	-11514
▁පසුතැ	-11515
▁නොයන	-11516
▁කෙළේ	-11517
▁අයිතියට	-11518
▁ව්යාපාර	-11519
▁අරුම	-11520
▁නෛතික	-11521
▁තෙරුන්	-11522
▁ගුරුවරයා	-11523
▁විද්වතුන්	-11524
▁දෙපාර්තමේන්තු	-11525
alk	-11526
▁තුලදී	-11527
▁කවුරුන්ද	-11528
▁බලාපොරොත්තුවක්	-11529
▁නිර්ව	-11530
▁නිව්ස්	-11531
▁කොන්ඩ	-11532
▁ප්‍රගති	-11533
▁ඔබෙන්	-11534
▁සොලි	-11535
▁පුපුර	-11536
▁දකිනවා	-11537
agg	-11538
▁පත්වීම්	-11539
▁ප්‍රභේදය	-11540
▁තීව්‍ර	-11541
රයකු	-11542
▁තමුන්	-11543
▁කේන්	-11544
▁නොසන්සුන්	-11545
රුවෙන්	-11546
▁ජාතක	-11547
▁ප්‍රතිචාරය	-11548
▁නිරෝධායනය	-11549
▁කාටද	-11550
▁ගිලන්	-11551
▁අහන්නේ	-11552
▁බැලීම්	-11553
▁පස්සෙන්	-11554
▁රටා	-11555
▁2/5	-11556
▁හැකිවීම	-11557
▁සහායක	-11558
▁කි‍්‍රයාත්මක	-11559
ජනයට	-11560
ිරෝද	-11561
▁1/5	-11562
▁සිරගත	-11563
▁කාරියවසම්	-11564
▁ඇඳගෙන	-11565
▁මිනිසෙකු	-11566
▁ටින්	-11567
▁කරනවාද	-11568
▁ජර්මන්	-11569
කීම්	-11570
▁වේලක්	-11571
▁සාමූහික	-11572
▁බංග	-11573
▁කුර්ආ	-11574
▁විශේෂත්වයකි	-11575
▁ඛාන්	-11576
▁පෝලි	-11577
▁ජේම්ස්	-11578
දිසි	-11579
මාකාර	-11580
▁අනුවාදය	-11581
▁පෙන්වයි	-11582
▁බියක්	-11583
▁නාද	-11584
▁බොහෝමයක්	-11585
▁ඇව	-11586
▁පොල	-11587
▁උපාලි	-11588
▁සඟරාව	-11589
▁මලල	-11590
▁සැලැස්මක්	-11591
▁බ්‍රිතාන්‍යයේ	-11592
ෙනුයි	-11593
▁නමට	-11594
▁එයාලට	-11595
▁දුවන	-11596
ree	-11597
▁විශේෂත්වයක්	-11598
▁සැම්	-11599
▁ආරාධිත	-11600
▁සයිටම්	-11601
▁අපොහොසත්	-11602
▁අද්ම	-11603
▁උරහි	-11604
▁විද්‍යාලයට	-11605
▁මාධ්‍යවේදිය	-11606
පාතී	-11607
▁දවසකට	-11608
▁(3)	-11609
▁ප්රා	-11610
ුයි	-11611
▁3/5	-11612
▁නෝර්	-11613
ඩිට්	-11614
▁ක්‍රිස්	-11615
▁වාසු	-11616
▁ඇලුමිනියම්	-11617
▁අහපු	-11618
ධු	-11619
▁නිරුවත්	-11620
▁නුවරඑළිය	-11621
▁2004	-11622
▁ස්මාර	-11623
▁ගම්මිරිස්	-11624
ount	-11625
▁රථවාහන	-11626
ඹිලි	-11627
▁අන්තර	-11628
▁මධ්‍යස්ථානයක්	-11629
▁ලියන්නට	-11630
▁නිකු	-11631
▁පිහිටුවන	-11632
▁පැමිණෙන්නේ	-11633
තලය	-11634
▁ස්වදේශ	-11635
නෙන්	-11636
රෝල්	-11637
The	-11638
▁පුටු	-11639
▁අසම	-11640
▁බුද්ධාගම	-11641
▁නියාමනය	-11642
▁නුවණින්	-11643
▁සොයිසා	-11644
▁පාඩම	-11645
▁දෙපා	-11646
▁ඩොනල්ඩ්	-11647
▁ag	-11648
▁කෙලෙස්	-11649
ප්ති	-11650
▁අනිවාර්යෙන්ම	-11651
ප්පි	-11652
▁කෙරුණා	-11653
▁ටෙන්ඩර්	-11654
▁49	-11655
▁බීලා	-11656
▁ratingGive	-11657
ෙල	-11658
▁මියන්	-11659
▁පෙරට	-11660
▁මුරු	-11661
වේන්ද්‍ර	-11662
නියම්	-11663
වත්තේ	-11664
▁vi	-11665
▁අපිරි	-11666
▁කණගාටු	-11667
▁ඔබලා	-11668
කිරීමෙන්	-11669
▁රඹු	-11670
▁සිදුවෙනවා	-11671
▁කර්ත	-11672
▁මෙදා	-11673
▁පොලීසියේ	-11674
▁මාර්ගයට	-11675
හේද	-11676
▁ඕස්ට්‍රේලියාවේ	-11677
▁අැ	-11678
දින්නේ	-11679
▁අවාසි	-11680
▁ලියනගේ	-11681
▁හැසිරෙන	-11682
චා	-11683
වමිනි	-11684
▁කමින්	-11685
▁අනිවාර්යයෙන්	-11686
▁සන	-11687
▁5/5	-11688
▁කොටගෙන	-11689
▁ටෙක්	-11690
▁ප‍්‍රමුඛ	-11691
▁ආශ්ච	-11692
රේන්ද්‍ර	-11693
▁ගන්	-11694
▁උෂ්ණත්ව	-11695
▁සුදුසුය	-11696
▁දැනගත්	-11697
▁හරින්න	-11698
▁ගැඹුරින්	-11699
ිබවා	-11700
▁උගන්න	-11701
▁නොවන්න	-11702
▁Cont	-11703
▁යාපා	-11704
▁කලයුතු	-11705
▁ප්‍රතිසංස්කරණය	-11706
▁කැද	-11707
▁රිද්	-11708
▁විකු	-11709
▁තණ්	-11710
▁ගොවිතැන	-11711
▁තරගයෙන්	-11712
▁කෙරෙනු	-11713
▁අද්මිරාල්	-11714
▁භාණ්ඩාගාර	-11715
▁ඇමතිවරුන්	-11716
▁ප්‍රදීප්	-11717
▁හිතකාමී	-11718
▁ජනේ	-11719
▁පහලට	-11720
▁කැප්	-11721
▁ලුහු	-11722
▁පලවෙනි	-11723
▁බාල්	-11724
▁චන්දිමාල්	-11725
ණෝ	-11726
▁යුද්ද	-11727
පත්තිය	-11728
▁නැන	-11729
▁ලාභය	-11730
▁ඇතිවීමට	-11731
▁ප්‍රියතම	-11732
▁ඔබාමා	-11733
▁මැතිවරණයක්	-11734
▁පෞද්ගලිකව	-11735
▁මවට	-11736
▁දුඹුරු	-11737
කප්ප	-11738
▁එමෙන්	-11739
▁පරපුරේ	-11740
----	-11741
▁චැනල්	-11742
▁ශ‍්‍ර	-11743
කියු	-11744
▁සාවද්‍ය	-11745
▁ගායන	-11746
▁පතිරණ	-11747
▁වෛරය	-11748
▁දුන්හ	-11749
▁iOS	-11750
▁තරා	-11751
▁මහේස්ත්‍රාත්ව	-11752
▁ප්‍රයත්	-11753
▁සංවිධානාත්මක	-11754
▁නොසිටි	-11755
▁කරගැනීමේ	-11756
▁විහාරස්ථානයේ	-11757
▁සරණා	-11758
‍ලේ	-11759
▁නාට	-11760
අව	-11761
▁වෙන්ඩ	-11762
▁64	-11763
▁ඉක්මනින්ම	-11764
▁වැඩෙන	-11765
▁වාර්ගික	-11766
▁අභියෝගයට	-11767
▁පිහිටුවීමට	-11768
hts	-11769
▁එබැවිනි	-11770
▁මහින්දට	-11771
▁සංහිඳියාව	-11772
▁කුරුටු	-11773
▁පාරිභෝගිකයින්	-11774
▁දෙස්	-11775
▁තුවක්	-11776
▁වූයේය	-11777
හකට	-11778
ස්ථාපනය	-11779
▁Windows	-11780
▁බන්ධනාගාරයේ	-11781
pt	-11782
සාද්	-11783
කොහොම	-11784
▁ආගන්තුක	-11785
ට්ටුවට	-11786
හනක්	-11787
▁නිරෝධාය	-11788
▁පහකට	-11789
▁ඛේදවාච	-11790
ඩොල්	-11791
▁ගෝල්	-11792
▁මනුස්සයා	-11793
▁නිත්‍ය	-11794
▁කරගත්තා	-11795
▁කසුන්	-11796
▁නඩුවක්	-11797
▁සොහොන්	-11798
▁කාර්යභාරයක්	-11799
▁අඳ	-11800
▁ඇහි	-11801
මුල්	-11802
▁මහරගම	-11803
▁සිතීම	-11804
▁නාලක	-11805
▁අරලියගහ	-11806
▁තෝරන්න	-11807
▁උනු	-11808
ටියේ	-11809
▁රෙද්ද	-11810
ලම්	-11811
▁යුක්ති	-11812
▁කනස්ස	-11813
වුණ	-11814
▁නිපදවා	-11815
▁ශිල්පී	-11816
▁මංජු	-11817
▁ලාල්	-11818
▁ලක්විය	-11819
▁ගැන්වීම	-11820
▁ලඟට	-11821
▁සිදුකිරීම	-11822
▁සතුරා	-11823
▁දන්නෑ	-11824
▁ඇතැමුන්	-11825
▁ශ්‍රද්ධ	-11826
▁You	-11827
▁ලැබීමෙන්	-11828
දට	-11829
▁අවාසනාවකට	-11830
▁	-11831
්	-11832
න	-11833
ි	-11834
ව	-11835
ක	-11836
ය	-11837
ා	-11838
ම	-11839
ත	-11840
ර	-11841
ු	-11842
ස	-11843
ද	-11844
ප	-11845
ල	-11846
ෙ	-11847
හ	-11848
ේ	-11849
ට	-11850
ග	-11851
ැ	-11852
ී	-11853
.	-11854
බ	-11855
අ	-11856
‍	-11857
ො	-11858
ණ	-11859
එ	-11860
ළ	-11861
ඩ	-11862
,	-11863
ජ	-11864
ශ	-11865
ෝ	-11866
ධ	-11867
ං	-11868
ඇ	-11869
ෂ	-11870
ඉ	-11871
ූ	-11872
ඳ	-11873
ඔ	-11874
ආ	-11875
ච	-11876
ඒ	-11877
උ	-11878
0	-11879
භ	-11880
1	-11881
e	-11882
a	-11883
2	-11884
ථ	-11885
ෑ	-11886
t	-11887
i	-11888
o	-11889
r	-11890
n	-11891
s	-11892
ඟ	-11893
)	-11894
(	-11895
l	-11896
-	-11897
5	-11898
ෘ	-11899
:	-11900
?	-11901
3	-11902
"	-11903
9	-11904
c	-11905
u	-11906
ඹ	-11907
4	-11908
'	-11909
m	-11910
ඛ	-11911
d	-11912
8	-11913
6	-11914
ඕ	-11915
h	-11916
ෆ	-11917
7	-11918
p	-11919
ඊ	-11920
ෞ	-11921
g	-11922
ෛ	-11923
M	-11924
A	-11925
y	-11926
P	-11927
S	-11928
/	-11929
ඡ	-11930
”	-11931
b	-11932
C	-11933
!	-11934
ඨ	-11935
ඥ	-11936
v	-11937
k	-11938
T	-11939
D	-11940
ඝ	-11941
“	-11942
w	-11943
f	-11944
­	-11945
–	-11946
I	-11947
’	-11948
ඬ	-11949
‘	-11950
N	-11951
R	-11952
L	-11953
B	-11954
G	-11955
E	-11956
O	-11957
ඵ	-11958
F	-11959
;	-11960
H	-11961
x	-11962
ඤ	-11963
%	-11964
V	-11965
ඈ	-11966
W	-11967
J	-11968
U	-11969
*	-11970
K	-11971
]	-11972
[	-11973
ඌ	-11974
ඞ	-11975
|	-11976
ඖ	-11977
»	-11978
z	-11979
X	-11980
=	-11981
+	-11982
•	-11983
\	-11984
j	-11985
Y	-11986
>	-11987
`	-11988
_	-11989
@	-11990
ඓ	-11991
Q	-11992
#	-11993
Z	-11994
ඍ	-11995
́	-11996
q	-11997
&	-11998
«	-11999
෴	-12000
→	-12001
$	-12002
<	-12003
ෲ	-12004
—	-12005
ඪ	-12006
ඃ	-12007
←	-12008
ඣ	-12009
·	-12010
}	-12011
~	-12012
{	-12013
😀	-12014
■	-12015
⁣	-12016
🙂	-12017
ෟ	-12018
°	-12019
↑	-12020
£	-12021
●	-12022
^	-12023
	-12024
ل	-12025
⁄	-12026
′	-12027
‛	-12028
️	-12029
̃	-12030
×	-12031
€	-12032
μ	-12033
♦	-12034
©	-12035
é	-12036
®	-12037
¥	-12038
	-12039
😂	-12040
‚	-12041
ا	-12042
❤	-12043
🔴	-12044
๞	-12045
😉	-12046
ı	-12047
ي	-12048
😛	-12049
、	-12050
§	-12051
ü	-12052
а	-12053
ه	-12054
	-12055
►	-12056
๧	-12057
்	-12058
ع	-12059
İ	-12060
ö	-12061
√	-12062
о	-12063
م	-12064
َ	-12065
๟	-12066
á	-12067
🌿	-12068
و	-12069
😦	-12070
ä	-12071
í	-12072
¡	-12073
	-12074
е	-12075
Ş	-12076
س	-12077
।	-12078
›	-12079
☐	-12080
Ø	-12081
ş	-12082
	-12083
๢	-12084
😁	-12085
Ü	-12086
★	-12087
ر	-12088
🙏	-12089
±	-12090
😊	-12091
и	-12092
ன	-12093
😃	-12094
	-12095
⋆	-12096
‹	-12097
👍	-12098
р	-12099
ب	-12100
🤔	-12101
с	-12102
ص	-12103
ó	-12104
ç	-12105
♥	-12106
ி	-12107
ى	-12108
▢	-12109
😍	-12110
ة	-12111
Ö	-12112
Ê	-12113
க	-12114
🤣	-12115
à	-12116
👉	-12117
▶	-12118
。	-12119
∎	-12120
ñ	-12121
Þ	-12122
н	-12123
✅	-12124
ம	-12125
ِ	-12126
̋	-12127
ā	-12128
ō	-12129
т	-12130
Ç	-12131
ல	-12132
๠	-12133
ğ	-12134
ن	-12135
▪	-12136
न	-12137
к	-12138
ْ	-12139
ா	-12140
த	-12141
̈	-12142
ர	-12143
‐	-12144
α	-12145
	-12146
د	-12147
	-12148
ि	-12149
🙁	-12150
ு	-12151
‬	-12152
è	-12153
в	-12154
π	-12155
≈	-12156
у	-12157
−	-12158
і	-12159
๤	-12160
æ	-12161
≤	-12162
	-12163
л	-12164
씨	-12165
θ	-12166
ت	-12167
😡	-12168
➢	-12169
ச	-12170
வ	-12171
ُ	-12172
ा	-12173
ඎ	-12174
∙	-12175
🔹	-12176
♪	-12177
│	-12178
😭	-12179
श	-12180
	-12181
ã	-12182
ѕ	-12183
्	-12184
ப	-12185
👌	-12186
	-12187
😜	-12188
̧	-12189
ə	-12190
ρ	-12191
☺	-12192
≥	-12193
이	-12194
🔥	-12195
ú	-12196
å	-12197
⃣	-12198
군	-12199
😒	-12200
▼	-12201
š	-12202
ّ	-12203
Ω	-12204
ෳ	-12205
Ó	-12206
ඦ	-12207
⋅	-12208
♣	-12209
β	-12210
♠	-12211
र	-12212
⦁	-12213
‫	-12214
Æ	-12215
ý	-12216
✔	-12217
왕	-12218
】	-12219
ك	-12220
λ	-12221
ட	-12222
⭕	-12223
÷	-12224
â	-12225
Δ	-12226
෿	-12227
☻	-12228
⁃	-12229
ඏ	-12230
😢	-12231
정	-12232
후	-12233
Á	-12234
【	-12235
👊	-12236
È	-12237
м	-12238
ˈ	-12239
👇	-12240
̊	-12241
ê	-12242
б	-12243
😱	-12244
໦	-12245
É	-12246
☘	-12247
😏	-12248
✌	-12249
😥	-12250
😅	-12251
त	-12252
	-12253
♫	-12254
	-12255
ˌ	-12256
ο	-12257
¤	-12258
🎈	-12259
║	-12260
▲	-12261
ɪ	-12262
ய	-12263
¦	-12264
🔺	-12265
🙈	-12266
д	-12267
▬	-12268
◆	-12269
█	-12270
	-12271
म	-12272
￼	-12273
주	-12274
г	-12275
я	-12276
¢	-12277
	-12278
ô	-12279
п	-12280
ف	-12281
☹	-12282
🌷	-12283
ū	-12284
ح	-12285
෈	-12286
💚	-12287
😆	-12288
¿	-12289
С	-12290
🇰	-12291
ï	-12292
ே	-12293
🔷	-12294
😎	-12295
대	-12296
🇱	-12297
ː	-12298
σ	-12299
김	-12300
😌	-12301
	-12302
ʹ	-12303
🌼	-12304
🙄	-12305
ƒ	-12306
з	-12307
č	-12308
໶	-12309
☑	-12310
🤩	-12311
▌	-12312
부	-12313
🌳	-12314
،	-12315
😋	-12316
🚫	-12317
원	-12318
인	-12319
😔	-12320
ī	-12321
ق	-12322
ீ	-12323
―	-12324
😐	-12325
😮	-12326
ʊ	-12327
성	-12328
🏻	-12329
ν	-12330
✉	-12331
✓	-12332
ŋ	-12333
➤	-12334
😄	-12335
ω	-12336
δ	-12337
໱	-12338
क	-12339
া	-12340
ை	-12341
한	-12342
﮿	-12343
🌺	-12344
빈	-12345
🌸	-12346
🤗	-12347
й	-12348
🔸	-12349
😯	-12350
ஸ	-12351
︎	-12352
💪	-12353
ò	-12354
י	-12355
أ	-12356
व	-12357
্	-12358
◊	-12359
ě	-12360
ι	-12361
의	-12362
😘	-12363
ř	-12364
τ	-12365
ь	-12366
े	-12367
À	-12368
γ	-12369
◄	-12370
공	-12371
ø	-12372
Œ	-12373
φ	-12374
ы	-12375
ண	-12376
†	-12377
ந	-12378
υ	-12379
✿	-12380
Ä	-12381
ð	-12382
ž	-12383
ε	-12384
х	-12385
ա	-12386
💖	-12387
😑	-12388
¬	-12389
Û	-12390
ি	-12391
❓	-12392
⬤	-12393
Ñ	-12394
Ô	-12395
✍	-12396
🐍	-12397
👏	-12398
Ò	-12399
ς	-12400
إ	-12401
র	-12402
๩	-12403
◙	-12404
⭐	-12405
사	-12406
👈	-12407
ч	-12408
य	-12409
윤	-12410
😲	-12411
¶	-12412
द	-12413
☆	-12414
⛔	-12415
🌟	-12416
̇	-12417
∆	-12418
◾	-12419
😓	-12420
◼	-12421
장	-12422
	-12423
🏽	-12424
ß	-12425
प	-12426
ी	-12427
‪	-12428
경	-12429
🌎	-12430
👑	-12431
Х	-12432
ह	-12433
ள	-12434
➖	-12435
̄	-12436
Р	-12437
ங	-12438
💐	-12439
😕	-12440
ë	-12441
඼	-12442
✰	-12443
﴿	-12444
⇒	-12445
😳	-12446
🙌	-12447
Φ	-12448
κ	-12449
຃	-12450
조	-12451
ì	-12452
ش	-12453
இ	-12454
⚠	-12455
大	-12456
⦿	-12457
전	-12458
Ž	-12459
ʻ	-12460
Σ	-12461
⟶	-12462
स	-12463
☸	-12464
⟵	-12465
🌹	-12466
ج	-12467
அ	-12468
ழ	-12469
문	-12470
🐃	-12471
～	-12472
🎶	-12473
🔫	-12474
😠	-12475
ु	-12476
》	-12477
신	-12478
	-12479
ற	-12480
국	-12481
🤭	-12482
Б	-12483
ц	-12484
ন	-12485
∗	-12486
	-12487
💥	-12488
Д	-12489
ն	-12490
ຌ	-12491
⚫	-12492
Å	-12493
η	-12494
ệ	-12495
王	-12496
﴾	-12497
😇	-12498
🥺	-12499
স	-12500
↓	-12501
☀	-12502
🍁	-12503
📌	-12504
🔅	-12505
ù	-12506
М	-12507
О	-12508
ш	-12509
ल	-12510
□	-12511
➥	-12512
😪	-12513
ו	-12514
च	-12515
ṭ	-12516
종	-12517
💛	-12518
ে	-12519
∞	-12520
궁	-12521
선	-12522
🍀	-12523
ć	-12524
ˆ	-12525
ά	-12526
《	-12527
🐕	-12528
ש	-12529
ی	-12530
◦	-12531
명	-12532
민	-12533
박	-12534
순	-12535
영	-12536
🌻	-12537
💕	-12538
😈	-12539
ե	-12540
ব	-12541
໸	-12542
♬	-12543
황	-12544
	-12545
õ	-12546
ł	-12547
ŏ	-12548
А	-12549
ं	-12550
中	-12551
현	-12552
🌱	-12553
ɑ	-12554
ό	-12555
П	-12556
ո	-12557
ग	-12558
※	-12559
∴	-12560
⏹	-12561
안	-12562
양	-12563
자	-12564
👧	-12565
🙊	-12566
ר	-12567
ת	-12568
ذ	-12569
٠	-12570
്	-12571
▸	-12572
い	-12573
十	-12574
文	-12575
🥰	-12576
ր	-12577
য	-12578
໮	-12579
➡	-12580
し	-12581
상	-12582
	-12583
	-12584
👩	-12585
💔	-12586
💧	-12587
Đ	-12588
ē	-12589
Š	-12590
В	-12591
ण	-12592
ు	-12593
天	-12594
수	-12595
숙	-12596
💜	-12597
Ι	-12598
ṇ	-12599
서	-12600
💙	-12601
😬	-12602
	-12603
Í	-12604
ɛ	-12605
ж	-12606
෉	-12607
‰	-12608
⏩	-12609
화	-12610
	-12611
🌏	-12612
😞	-12613
🟣	-12614
ă	-12615
ʃ	-12616
ெ	-12617
ຩ	-12618
₹	-12619
✴	-12620
구	-12621
제	-12622
태	-12623
	-12624
🛑	-12625
Č	-12626
ť	-12627
ज	-12628
໵	-12629
ế	-12630
↠	-12631
○	-12632
✨	-12633
❝	-12634
유	-12635
천	-12636
	-12637
🌞	-12638
👀	-12639
ư	-12640
Ȁ	-12641
̅	-12642
Т	-12643
Խ	-12644
ւ	-12645
خ	-12646
ক	-12647
ඐ	-12648
๜	-12649
๷	-12650
຺	-12651
☠	-12652
后	-12653
皇	-12654
기	-12655
산	-12656
소	-12657
옹	-12658
용	-12659
평	-12660
	-12661
	-12662
	-12663
📷	-12664
🟢	-12665
ń	-12666
Λ	-12667
К	-12668
ב	-12669
ל	-12670
अ	-12671
຀	-12672
ᱹ	-12673
☛	-12674
❖	-12675
❞	-12676
⬛	-12677
진	-12678
하	-12679
🍃	-12680
🔻	-12681
😹	-12682
🤐	-12683
Ε	-12684
յ	-12685
ạ	-12686
₽	-12687
⇨	-12688
」	-12689
李	-12690
神	-12691
어	-12692
홍	-12693
🍬	-12694
😝	-12695
😩	-12696
🚨	-12697
ƨ	-12698
ˮ	-12699
щ	-12700
ה	-12701
ط	-12702
ो	-12703
ু	-12704
್	-12705
❎	-12706
「	-12707
人	-12708
号	-12709
山	-12710
덕	-12711
도	-12712
비	-12713
희	-12714
	-12715
👨	-12716
📍	-12717
🧡	-12718
ʒ	-12719
Α	-12720
э	-12721
भ	-12722
ू	-12723
ড	-12724
໧	-12725
↔	-12726
♀	-12727
✪	-12728
❌	-12729
宮	-12730
세	-12731
지	-12732
	-12733
🐘	-12734
👦	-12735
😶	-12736
î	-12737
ÿ	-12738
ś	-12739
̔	-12740
ί	-12741
غ	-12742
ٍ	-12743
ः	-12744
ং	-12745
໳	-12746
☞	-12747
❗	-12748
の	-12749
・	-12750
日	-12751
金	-12752
	-12753
	-12754
🇺	-12755
🏵	-12756
💰	-12757
	-12758
ơ	-12759
ब	-12760
ொ	-12761
ோ	-12762
ེ	-12763
⇦	-12764
☝	-12765
一	-12766
德	-12767
氏	-12768
고	-12769
녕	-12770
동	-12771
여	-12772
연	-12773
중	-12774
창	-12775
해	-12776
	-12777
🎼	-12778
ɐ	-12779
א	-12780
ـ	-12781
ٌ	-12782
ट	-12783
ड	-12784
জ	-12785
ನ	-12786
◮	-12787
☼	-12788
♂	-12789
本	-12790
阿	-12791
생	-12792
최	-12793
효	-12794
🌴	-12795
🏼	-12796
Ś	-12797
ɥ	-12798
ի	-12799
ত	-12800
ຬ	-12801
う	-12802
太	-12803
尹	-12804
語	-12805
陵	-12806
리	-12807
😖	-12808
😨	-12809
🤬	-12810
Â	-12811
̶	-12812
ز	-12813
ম	-12814
ল	-12815
়	-12816
ஆ	-12817
മ	-12818
າ	-12819
ာ	-12820
၂	-12821
ា	-12822
∂	-12823
☢	-12824
✋	-12825
나	-12826
시	-12827
혜	-12828
💨	-12829
📲	-12830
📹	-12831
😟	-12832
Ğ	-12833
Π	-12834
ψ	-12835
ד	-12836
অ	-12837
ల	-12838
๡	-12839
ọ	-12840
⊰	-12841
⌘	-12842
╰	-12843
❑	-12844
➔	-12845
⬇	-12846
き	-12847
三	-12848
二	-12849
公	-12850
究	-12851
高	-12852
로	-12853
무	-12854
송	-12855
심	-12856
위	-12857
흥	-12858
	-12859
🌝	-12860
💲	-12861
🚗	-12862
🤠	-12863
כ	-12864
מ	-12865
ष	-12866
এ	-12867
দ	-12868
඿	-12869
෇	-12870
မ	-12871
∩	-12872
☎	-12873
⚪	-12874
➟	-12875
『	-12876
か	-12877
ま	-12878
ょ	-12879
元	-12880
國	-12881
斯	-12882
복	-12883
우	-12884
🇸	-12885
👹	-12886
📽	-12887
🙃	-12888
🤓	-12889
🧐	-12890
Õ	-12891
ɒ	-12892
ɯ	-12893
ъ	-12894
մ	-12895
տ	-12896
ء	-12897
യ	-12898
ṃ	-12899
∫	-12900
⚈	-12901
✊	-12902
』	-12903
す	-12904
劳	-12905
研	-12906
者	-12907
보	-12908
폐	-12909
🌀	-12910
🍐	-12911
🎀	-12912
🎉	-12913
🔘	-12914
🔶	-12915
🤪	-12916
œ	-12917
ŭ	-12918
И	-12919
ю	-12920
ע	-12921
ئ	-12922
ث	-12923
ા	-12924
எ	-12925
ವ	-12926
ക	-12927
ന	-12928
ാ	-12929
ท	-12930
໣	-12931
ა	-12932
‣	-12933
∪	-12934
◘	-12935
♌	-12936
✳	-12937
❶	-12938
全	-12939
明	-12940
村	-12941
권	-12942
마	-12943
에	-12944
	-12945
	-12946
	-12947
	-12948
🏆	-12949
🐄	-12950
💘	-12951
🤘	-12952
🤦	-12953
Ú	-12954
Ţ	-12955
ǔ	-12956
ɨ	-12957
ʾ	-12958
Θ	-12959
Н	-12960
ض	-12961
ظ	-12962
ً	-12963
ট	-12964
ভ	-12965
ર	-12966
ூ	-12967
ె	-12968
ย	-12969
⇔	-12970
∅	-12971
≠	-12972
▷	-12973
☕	-12974
♍	-12975
♑	-12976
♤	-12977
❷	-12978
下	-12979
主	-12980
九	-12981
字	-12982
尙	-12983
州	-12984
羅	-12985
聖	-12986
閔	-12987
가	-12988
금	-12989
헌	-12990
	-12991
💡	-12992
🔜	-12993
😰	-12994
🤨	-12995
🥴	-12996
🩺	-12997
û	-12998
У	-12999
ї	-13000
ј	-13001
Հ	-13002
ִ	-13003
ק	-13004
؟	-13005
ە	-13006
ই	-13007
ো	-13008
ஷ	-13009
త	-13010
ಾ	-13011
ല	-13012
๫	-13013
໲	-13014
ṅ	-13015
⏺	-13016
⚡	-13017
➶	-13018
つ	-13019
て	-13020
备	-13021
安	-13022
帝	-13023
殿	-13024
강	-13025
광	-13026
방	-13027
	-13028
	-13029
	-13030
🌾	-13031
🎥	-13032
💃	-13033
💗	-13034
💯	-13035
📕	-13036
🔇	-13037
🔔	-13038
🖤	-13039
Ȟ	-13040
ɔ	-13041
ɩ	-13042
ʀ	-13043
ʅ	-13044
ʌ	-13045
̀	-13046
̎	-13047
έ	-13048
ύ	-13049
Е	-13050
ց	-13051
ן	-13052
ै	-13053
१	-13054
உ	-13055
ஜ	-13056
గ	-13057
෦	-13058
า	-13059
ไ	-13060
๬	-13061
๯	-13062
ი	-13063
ḍ	-13064
‡	-13065
↩	-13066
∼	-13067
⌖	-13068
♋	-13069
⚜	-13070
く	-13071
ん	-13072
光	-13073
夫	-13074
媽	-13075
新	-13076
标	-13077
的	-13078
계	-13079
관	-13080
미	-13081
아	-13082
오	-13083
임	-13084
촌	-13085
편	-13086
	-13087
	-13088
	-13089
	-13090
🎃	-13091
🐶	-13092
💀	-13093
💋	-13094
😤	-13095
😫	-13096
🤲	-13097
ũ	-13098
ǝ	-13099
ɖ	-13100
̆	-13101
χ	-13102
Ф	-13103
ս	-13104
ए	-13105
ख	-13106
প	-13107
২	-13108
ത	-13109
อ	-13110
๸	-13111
຋	-13112
რ	-13113
ᄋ	-13114
្	-13115
ễ	-13116
„	-13117
∏	-13118
◇	-13119
⚑	-13120
❸	-13121
で	-13122
万	-13123
化	-13124
国	-13125
子	-13126
宗	-13127
方	-13128
書	-13129
正	-13130
活	-13131
道	-13132
院	-13133
령	-13134
석	-13135
손	-13136
재	-13137
호	-13138
	-13139
	-13140
	-13141
	-13142
	-13143
🍺	-13144
👿	-13145
📱	-13146
🔰	-13147
😣	-13148
🙆	-13149
🤥	-13150
🤱	-13151
Ý	-13152
Ā	-13153
Ē	-13154
Ÿ	-13155
ʼ	-13156
ʽ	-13157
̨	-13158
͒	-13159
Β	-13160
Κ	-13161
ф	-13162
қ	-13163
կ	-13164
پ	-13165
ک	-13166
ृ	-13167
ौ	-13168
গ	-13169
চ	-13170
ী	-13171
ગ	-13172
ತ	-13173
ಸ	-13174
඾	-13175
ວ	-13176
ლ	-13177
ქ	-13178
ម	-13179
᳘	-13180
ố	-13181
‟	-13182
↵	-13183
△	-13184
✥	-13185
❹	-13186
❺	-13187
〉	-13188
五	-13189
京	-13190
仁	-13191
会	-13192
動	-13193
北	-13194
定	-13195
必	-13196
成	-13197
清	-13198
長	-13199
韓	-13200
鼎	-13201
龍	-13202
록	-13203
식	-13204
실	-13205
온	-13206
일	-13207
집	-13208
찬	-13209
철	-13210
파	-13211
훈	-13212
	-13213
	-13214
	-13215
	-13216
	-13217
🍂	-13218
🍭	-13219
🎁	-13220
🎂	-13221
🐊	-13222
👋	-13223
👸	-13224
💓	-13225
🔵	-13226
🗿	-13227
😴	-13228
😻	-13229
🤮	-13230
đ	-13231
ĩ	-13232
ň	-13233
ɕ	-13234
ʁ	-13235
̂	-13236
Ν	-13237
І	-13238
һ	-13239
հ	-13240
ח	-13241
ס	-13242
آ	-13243
ध	-13244
ಿ	-13245
ം	-13246
ള	-13247
വ	-13248
ി	-13249
ൂ	-13250
ง	-13251
น	-13252
ว	-13253
ั	-13254
ิ	-13255
๣	-13256
๾	-13257
ລ	-13258
໤	-13259
໷	-13260
်	-13261
თ	-13262
უ	-13263
ᄀ	-13264
រ	-13265
ḻ	-13266
ầ	-13267
ừ	-13268
⁡	-13269
∕	-13270
∶	-13271
≡	-13272
◉	-13273
♎	-13274
✭	-13275
ト	-13276
世	-13277
地	-13278
嬪	-13279
学	-13280
物	-13281
特	-13282
西	-13283
거	-13284
교	-13285
귀	-13286
라	-13287
완	-13288
음	-13289
춘	-13290
친	-13291
향	-13292
환	-13293
	-13294
🍓	-13295
🏝	-13296
🐋	-13297
💁	-13298
💦	-13299
📺	-13300
🙉	-13301
🤝	-13302
🤯	-13303
🤷	-13304
🦜	-13305
ė	-13306
ț	-13307
̪	-13308
Μ	-13309
Χ	-13310
Я	-13311
є	-13312
ү	-13313
ը	-13314
թ	-13315
ծ	-13316
ղ	-13317
ם	-13318
٫	-13319
۱	-13320
۴	-13321
ठ	-13322
थ	-13323
আ	-13324
শ	-13325
જ	-13326
ત	-13327
ી	-13328
ુ	-13329
ಕ	-13330
ಶ	-13331
ก	-13332
န	-13333
ြ	-13334
ᄒ	-13335
ᅭ	-13336
ᅳ	-13337
ស	-13338
ỏ	-13339
ử	-13340
ự	-13341
∝	-13342
≦	-13343
⓵	-13344
◕	-13345
♡	-13346
♨	-13347
✈	-13348
✐	-13349
✮	-13350
❂	-13351
❉	-13352
こ	-13353
に	-13354
ー	-13355
事	-13356
伐	-13357
史	-13358
工	-13359
征	-13360
忠	-13361
我	-13362
智	-13363
月	-13364
木	-13365
武	-13366
灵	-13367
盤	-13368
眞	-13369
禪	-13370
粤	-13371
行	-13372
赢	-13373
鈷	-13374
鎭	-13375
과	-13376
규	-13377
렬	-13378
릉	-13379
림	-13380
모	-13381
목	-13382
백	-13383
벌	-13384
변	-13385
봉	-13386
약	-13387
역	-13388
은	-13389
총	-13390
충	-13391
판	-13392
회	-13393
	-13394
	-13395
	-13396
	-13397
	-13398
	-13399
	-13400
🍻	-13401
🎵	-13402
🐅	-13403
💻	-13404
📸	-13405
🔼	-13406
🖕	-13407
😗	-13408
😵	-13409
🙋	-13410
🚀	-13411
🚬	-13412
🟡	-13413
🥳	-13414
Ù	-13415
Ō	-13416
ų	-13417
Ż	-13418
ż	-13419
Ɵ	-13420
ɡ	-13421
̲	-13422
Ο	-13423
ή	-13424
ё	-13425
Қ	-13426
դ	-13427
վ	-13428
ט	-13429
פ	-13430
٨	-13431
ۆ	-13432
۲	-13433
އ	-13434
़	-13435
ਾ	-13436
్	-13437
ಡ	-13438
จ	-13439
฿	-13440
๑	-13441
໯	-13442
ᄅ	-13443
ḥ	-13444
ṣ	-13445
ấ	-13446
ị	-13447
ồ	-13448
ộ	-13449
⁠	-13450
₩	-13451
♐	-13452
♟	-13453
⛵	-13454
✦	-13455
❻	-13456
⦾	-13457
⧫	-13458
が	-13459
せ	-13460
っ	-13461
と	-13462
ど	-13463
カ	-13464
ン	-13465
ヶ	-13466
上	-13467
丨	-13468
亶	-13469
八	-13470
士	-13471
妃	-13472
昭	-13473
海	-13474
理	-13475
真	-13476
简	-13477
通	-13478
醫	-13479
鑑	-13480
麗	-13481
겸	-13482
근	-13483
당	-13484
말	-13485
발	-13486
번	-13487
병	-13488
삼	-13489
승	-13490
와	-13491
익	-13492
청	-13493
함	-13494
형	-13495
	-13496
	-13497
	-13498
	-13499
	-13500
	-13501
🇧	-13502
🌈	-13503
🌚	-13504
🍨	-13505
🏃	-13506
🐆	-13507
🐉	-13508
🐜	-13509
🐪	-13510
🐴	-13511
💑	-13512
💝	-13513
📚	-13514
🙀	-13515
🚶	-13516
🛡	-13517
🤕	-13518
🤟	-13519
🤰	-13520
🥇	-13521
Ã	-13522
Î	-13523
þ	-13524
ľ	-13525
ő	-13526
ů	-13527
Ж	-13528
З	-13529
ҷ	-13530
Ծ	-13531
Ց	-13532
է	-13533
լ	-13534
ַ	-13535
ָ	-13536
ؤ	-13537
۩	-13538
ܐ	-13539
आ	-13540
ॐ	-13541
উ	-13542
ஹ	-13543
ి	-13544
ു	-13545
෕	-13546
෯	-13547
ม	-13548
ส	-13549
ห	-13550
၀	-13551
ᄂ	-13552
ក	-13553
ḷ	-13554
ṁ	-13555
ậ	-13556
ắ	-13557
⇪	-13558
⓶	-13559
⓸	-13560
▐	-13561
⚕	-13562
✖	-13563
✱	-13564
❄	-13565
❅	-13566
⠀	-13567
⧪	-13568
〈	-13569
さ	-13570
な	-13571
ゅ	-13572
ら	-13573
り	-13574
れ	-13575
之	-13576
产	-13577
做	-13578
分	-13579
功	-13580
口	-13581
古	-13582
台	-13583
圓	-13584
在	-13585
女	-13586
宋	-13587
心	-13588
思	-13589
性	-13590
教	-13591
春	-13592
景	-13593
杵	-13594
柳	-13595
樹	-13596
歲	-13597
比	-13598
民	-13599
法	-13600
漢	-13601
然	-13602
玉	-13603
瓶	-13604
生	-13605
社	-13606
秘	-13607
花	-13608
萬	-13609
蘭	-13610
親	-13611
誠	-13612
調	-13613
邪	-13614
郡	-13615
音	-13616
體	-13617
간	-13618
년	-13619
녹	-13620
단	-13621
린	-13622
애	-13623
을	-13624
	-13625
	-13626
	-13627
	-13628
	-13629
	-13630
	-13631
🌊	-13632
🍲	-13633
🍹	-13634
🎬	-13635
🏈	-13636
🏞	-13637
🐈	-13638
🐌	-13639
👆	-13640
👫	-13641
👱	-13642
👻	-13643
💟	-13644
💢	-13645
📻	-13646
🔲	-13647
🔽	-13648
🕺	-13649
🖊	-13650
😚	-13651
😷	-13652
🚌	-13653
🚼	-13654
🤍	-13655
🤧	-13656
🧒	-13657
🧵	-13658
🪡	-13659
🪴	-13660
Ð	-13661
ĉ	-13662
ǐ	-13663
ɟ	-13664
ʈ	-13665
ʋ	-13666
ˑ	-13667
Ζ	-13668
Υ	-13669
ζ	-13670
Л	-13671
բ	-13672
գ	-13673
ְ	-13674
נ	-13675
ؚ	-13676
ہ	-13677
࣮	-13678
ँ	-13679
০	-13680
৪	-13681
ો	-13682
ପ	-13683
ର	-13684
ஞ	-13685
ర	-13686
స	-13687
ದ	-13688
ು	-13689
പ	-13690
ഹ	-13691
൦	-13692
඲	-13693
บ	-13694
ร	-13695
๓	-13696
ສ	-13697
໏	-13698
ᄃ	-13699
ᄇ	-13700
ር	-13701
ង	-13702
ព	-13703
ី	-13704
ḫ	-13705
ể	-13706
ờ	-13707
ợ	-13708
ứ	-13709
ữ	-13710
ἄ	-13711
‧	-13712
₴	-13713
↯	-13714
⇑	-13715
∧	-13716
≧	-13717
⏭	-13718
␀	-13719
◎	-13720
☪	-13721
♒	-13722
⛰	-13723
⛱	-13724
⛽	-13725
✝	-13726
✡	-13727
❣	-13728
➠	-13729
⟨	-13730
⟩	-13731
お	-13732
け	-13733
た	-13734
ね	-13735
ル	-13736
七	-13737
今	-13738
六	-13739
円	-13740
合	-13741
四	-13742
土	-13743
堂	-13744
實	-13745
小	-13746
就	-13747
川	-13748
度	-13749
張	-13750
控	-13751
族	-13752
時	-13753
樂	-13754
琴	-13755
电	-13756
直	-13757
福	-13758
章	-13759
繁	-13760
義	-13761
職	-13762
臺	-13763
部	-13764
里	-13765
靜	-13766
개	-13767
건	-13768
결	-13769
는	-13770
니	-13771
다	-13772
래	-13773
설	-13774
악	-13775
야	-13776
언	-13777
옥	-13778
욱	-13779
치	-13780
필	-13781
	-13782
	-13783
	-13784
	-13785
	-13786
	-13787
🇦	-13788
🇩	-13789
🇷	-13790
🌐	-13791
🍷	-13792
🎄	-13793
🎞	-13794
🏏	-13795
🏜	-13796
🏿	-13797
🐮	-13798
💫	-13799
📢	-13800
🔨	-13801
🔭	-13802
🕣	-13803
🖐	-13804
🖼	-13805
😸	-13806
🛎	-13807
🞄	-13808
🤡	-13809
🥲	-13810
🥵	-13811
🦉	-13812
🧑	-13813
	-13814
ą	-13815
Ď	-13816
Ħ	-13817
ĵ	-13818
Ŝ	-13819
Ƙ	-13820
Ɲ	-13821
ǣ	-13822
ɴ	-13823
ʇ	-13824
ʿ	-13825
ˉ	-13826
̓	-13827
̕	-13828
͑	-13829
Γ	-13830
Ρ	-13831
ξ	-13832
Г	-13833
ў	-13834
ӣ	-13835
պ	-13836
ք	-13837
ּ	-13838
׃	-13839
ג	-13840
ؘ	-13841
ؠ	-13842
١	-13843
٧	-13844
٪	-13845
ښ	-13846
ި	-13847
उ	-13848
छ	-13849
३	-13850
४	-13851
ণ	-13852
ধ	-13853
ফ	-13854
১	-13855
৩	-13856
৯	-13857
ਜ	-13858
ਸ	-13859
ੀ	-13860
ક	-13861
ି	-13862
ం	-13863
ట	-13864
న	-13865
వ	-13866
ా	-13867
ಂ	-13868
ರ	-13869
ഗ	-13870
ച	-13871
സ	-13872
െ	-13873
෧	-13874
෨	-13875
෩	-13876
෪	-13877
෫	-13878
෬	-13879
෭	-13880
෮	-13881
ต	-13882
ี	-13883
๥	-13884
๦	-13885
຅	-13886
ພ	-13887
໨	-13888
ག	-13889
བ	-13890
ო	-13891
ᄊ	-13892
ᄏ	-13893
ᄐ	-13894
ᄑ	-13895
ማ	-13896
አ	-13897
ᚼ	-13898
ᛒ	-13899
ខ	-13900
ជ	-13901
ន	-13902
ប	-13903
ភ	-13904
ែ	-13905
ᥙ	-13906
ᴑ	-13907
ề	-13908
ở	-13909
ụ	-13910
‿	-13911
₪	-13912
⇛	-13913
∣	-13914
⊙	-13915
⊥	-13916
⊿	-13917
⏬	-13918
⏰	-13919
⓽	-13920
◈	-13921
◌	-13922
◔	-13923
◪	-13924
⚛	-13925
✂	-13926
✩	-13927
❯	-13928
❾	-13929
➲	-13930
⤵	-13931
⬆	-13932
は	-13933
る	-13934
イ	-13935
キ	-13936
モ	-13937
乇	-13938
乙	-13939
仏	-13940
仙	-13941
体	-13942
佛	-13943
侍	-13944
保	-13945
內	-13946
典	-13947
刻	-13948
匜	-13949
卍	-13950
厚	-13951
去	-13952
君	-13953
周	-13954
和	-13955
善	-13956
器	-13957
域	-13958
壺	-13959
姜	-13960
媚	-13961
嫗	-13962
尼	-13963
巡	-13964
市	-13965
庭	-13966
式	-13967
恩	-13968
愛	-13969
感	-13970
慈	-13971
戊	-13972
所	-13973
敎	-13974
敦	-13975
整	-13976
昌	-13977
朝	-13978
未	-13979
東	-13980
松	-13981
條	-13982
歌	-13983
母	-13984
水	-13985
流	-13986
源	-13987
烈	-13988
無	-13989
爰	-13990
片	-13991
璽	-13992
甑	-13993
申	-13994
留	-13995
略	-13996
相	-13997
禍	-13998
米	-13999
粵	-14000
级	-14001
网	-14002
耶	-14003
臣	-14004
舊	-14005
葉	-14006
葛	-14007
董	-14008
蕉	-14009
要	-14010
视	-14011
觚	-14012
訓	-14013
論	-14014
謙	-14015
貞	-14016
路	-14017
重	-14018
釜	-14019
鋬	-14020
間	-14021
陛	-14022
陽	-14023
隊	-14024
雷	-14025
香	-14026
갈	-14027
검	-14028
남	-14029
노	-14030
달	-14031
량	-14032
려	-14033
막	-14034
만	-14035
망	-14036
버	-14037
범	-14038
불	-14039
블	-14040
셔	-14041
요	-14042
울	-14043
웅	-14044
월	-14045
읍	-14046
읽	-14047
저	-14048
절	-14049
준	-14050
차	-14051
타	-14052
행	-14053
허	-14054
	-14055
	-14056
	-14057
	-14058
	-14059
	-14060
	-14061
	-14062
	-14063
	-14064
	-14065
	-14066
	-14067
	-14068
	-14069
🇮	-14070
🇹	-14071
🌌	-14072
🌲	-14073
🎅	-14074
🎇	-14075
🎯	-14076
🏅	-14077
🏕	-14078
🏫	-14079
🏾	-14080
🐤	-14081
🐱	-14082
🐵	-14083
👁	-14084
👎	-14085
👳	-14086
👺	-14087
💇	-14088
💣	-14089
💬	-14090
📞	-14091
📣	-14092
📧	-14093
🔊	-14094
🔱	-14095
🕳	-14096
🖋	-14097
🗾	-14098
😺	-14099
😽	-14100
🚆	-14101
🟤	-14102
🥊	-14103
🦥	-14104
	-14105
	-14106
ű	-14107
ź	-14108
ș	-14109
ɓ	-14110
ɲ	-14111
ɳ	-14112
ɾ	-14113
ʜ	-14114
ʞ	-14115
̥	-14116
͡	-14117
Τ	-14118
Є	-14119
Ч	-14120
Э	-14121
Դ	-14122
օ	-14123
ך	-14124
گ	-14125
ێ	-14126
۰	-14127
۳	-14128
۵	-14129
۷	-14130
۹	-14131
ܝ	-14132
ܡ	-14133
ܪ	-14134
ަ	-14135
ऊ	-14136
घ	-14137
६	-14138
ও	-14139
খ	-14140
থ	-14141
ষ	-14142
হ	-14143
৫	-14144
৮	-14145
ਪ	-14146
ਬ	-14147
ਰ	-14148
ੰ	-14149
ય	-14150
ଗ	-14151
ଷ	-14152
ஒ	-14153
క	-14154
చ	-14155
ద	-14156
ప	-14157
య	-14158
ే	-14159
ಅ	-14160
ಗ	-14161
ಬ	-14162
ೇ	-14163
ട	-14164
റ	-14165
ശ	-14166
෋	-14167
ด	-14168
พ	-14169
ภ	-14170
แ	-14171
่	-14172
้	-14173
๒	-14174
๳	-14175
๽	-14176
ຒ	-14177
ນ	-14178
ມ	-14179
ົ	-14180
໚	-14181
စ	-14182
ဘ	-14183
သ	-14184
ე	-14185
მ	-14186
ს	-14187
ᄌ	-14188
ኛ	-14189
ច	-14190
ទ	-14191
វ	-14192
អ	-14193
ុ	-14194
᱿	-14195
ả	-14196
ổ	-14197
ớ	-14198
ủ	-14199
Ữ	-14200
ỹ	-14201
ἐ	-14202
ἰ	-14203
ῖ	-14204
‒	-14205
‭	-14206
₺	-14207
↭	-14208
∈	-14209
∑	-14210
∘	-14211
⏳	-14212
┗	-14213
┛	-14214
▫	-14215
◽	-14216
☮	-14217
☾	-14218
♊	-14219
♏	-14220
♓	-14221
♛	-14222
⛺	-14223
✗	-14224
✺	-14225
❦	-14226
➊	-14227
➨	-14228
➵	-14229
➽	-14230
⤓	-14231
あ	-14232
え	-14233
だ	-14234
め	-14235
も	-14236
わ	-14237
タ	-14238
业	-14239
为	-14240
井	-14241
亮	-14242
代	-14243
令	-14244
何	-14245
作	-14246
侯	-14247
像	-14248
儀	-14249
兒	-14250
刘	-14251
加	-14252
区	-14253
原	-14254
可	-14255
吏	-14256
吗	-14257
品	-14258
問	-14259
営	-14260
壽	-14261
妙	-14262
姆	-14263
孝	-14264
學	-14265
官	-14266
客	-14267
家	-14268
容	-14269
察	-14270
寺	-14271
少	-14272
屏	-14273
带	-14274
年	-14275
府	-14276
提	-14277
摡	-14278
数	-14279
是	-14280
暄	-14281
曹	-14282
曺	-14283
會	-14284
机	-14285
来	-14286
林	-14287
案	-14288
汉	-14289
沙	-14290
洪	-14291
浙	-14292
热	-14293
照	-14294
甫	-14295
由	-14296
看	-14297
祿	-14298
程	-14299
等	-14300
管	-14301
紀	-14302
純	-14303
經	-14304
能	-14305
致	-14306
色	-14307
茫	-14308
蓮	-14309
表	-14310
解	-14311
証	-14312
話	-14313
謝	-14314
資	-14315
趙	-14316
錤	-14317
門	-14318
開	-14319
青	-14320
频	-14321
食	-14322
鮮	-14323
곽	-14324
궐	-14325
그	-14326
길	-14327
답	-14328
돈	-14329
두	-14330
득	-14331
들	-14332
란	-14333
람	-14334
략	-14335
론	-14336
물	-14337
별	-14338
본	-14339
북	-14340
분	-14341
살	-14342
속	-14343
열	-14344
염	-14345
예	-14346
운	-14347
죽	-14348
직	-14349
찰	-14350
채	-14351
추	-14352
토	-14353
표	-14354
풍	-14355
학	-14356
항	-14357
	-14358
	-14359
	-14360
	-14361
🇳	-14362
🇵	-14363
🌠	-14364
🌵	-14365
🍅	-14366
🍌	-14367
🍖	-14368
🍦	-14369
🍫	-14370
🎊	-14371
🎋	-14372
🎧	-14373
🏔	-14374
🏢	-14375
🐎	-14376
🐞	-14377
🐢	-14378
🐦	-14379
👤	-14380
👪	-14381
👽	-14382
💅	-14383
💍	-14384
💞	-14385
💵	-14386
📅	-14387
📖	-14388
📝	-14389
📿	-14390
🔚	-14391
🔝	-14392
🔟	-14393
🖥	-14394
🗡	-14395
😙	-14396
😧	-14397
🚚	-14398
🚲	-14399
🟠	-14400
🤒	-14401
🤙	-14402
🤜	-14403
🤫	-14404
🥀	-14405
🥕	-14406
🥛	-14407
🩸	-14408
	-14409
	-14410
	-14411
Ì	-14412
Ė	-14413
Ġ	-14414
ħ	-14415
Ĩ	-14416
ķ	-14417
Ĺ	-14418
ņ	-14419
ŝ	-14420
Ŵ	-14421
Ơ	-14422
Ʒ	-14423
ǎ	-14424
ǧ	-14425
ȟ	-14426
Ʌ	-14427
ɗ	-14428
ɜ	-14429
ɭ	-14430
ʎ	-14431
ʔ	-14432
ʘ	-14433
ˁ	-14434
ˊ	-14435
˟	-14436
̒	-14437
̯	-14438
̵	-14439
ͦ	-14440
͸	-14441
Ώ	-14442
Η	-14443
ώ	-14444
ϡ	-14445
Ѕ	-14446
Ѿ	-14447
Ҕ	-14448
ҡ	-14449
ң	-14450
Ҩ	-14451
ӑ	-14452
ԝ	-14453
ժ	-14454
ռ	-14455
ֹ	-14456
ֺ	-14457
ׁ	-14458
ז	-14459
ף	-14460
ץ	-14461
צ	-14462
ٛ	-14463
ڈ	-14464
ڌ	-14465
ڕ	-14466
ۇ	-14467
۔	-14468
ߋ	-14469
ࢡ	-14470
࣯	-14471
इ	-14472
ई	-14473
औ	-14474
ॅ	-14475
ॉ	-14476
॥	-14477
५	-14478
८	-14479
ূ	-14480
ৃ	-14481
ਕ	-14482
ਖ	-14483
ઉ	-14484
ણ	-14485
દ	-14486
પ	-14487
મ	-14488
વ	-14489
સ	-14490
્	-14491
ନ	-14492
ୀ	-14493
ஃ	-14494
ஏ	-14495
ௌ	-14496
మ	-14497
ష	-14498
ై	-14499
ో	-14500
ౌ	-14501
ಎ	-14502
ಟ	-14503
ಠ	-14504
ಪ	-14505
ಮ	-14506
ೂ	-14507
ഉ	-14508
ണ	-14509
൬	-14510
ค	-14511
ช	-14512
ฏ	-14513
ผ	-14514
ล	-14515
ะ	-14516
ุ	-14517
เ	-14518
ใ	-14519
๋	-14520
๐	-14521
๘	-14522
ຆ	-14523
໹	-14524
་	-14525
ད	-14526
འ	-14527
ཡ	-14528
ི	-14529
ུ	-14530
ོ	-14531
ྲ	-14532
တ	-14533
ဗ	-14534
ီ	-14535
ု	-14536
ვ	-14537
ჭ	-14538
ხ	-14539
ᄁ	-14540
ᄄ	-14541
ᄆ	-14542
ᄈ	-14543
ᄉ	-14544
ᄍ	-14545
ᄎ	-14546
ᄚ	-14547
ᄡ	-14548
ᆪ	-14549
ᆬ	-14550
ᆭ	-14551
ᆰ	-14552
ᆱ	-14553
ᆲ	-14554
ᆳ	-14555
ᆴ	-14556
ᆵ	-14557
ል	-14558
ሐ	-14559
ራ	-14560
ሻ	-14561
ት	-14562
ኤ	-14563
የ	-14564
ᐅ	-14565
ᐈ	-14566
ᗅ	-14567
គ	-14568
ត	-14569
ឹ	-14570
ោ	-14571
ំ	-14572
ះ	-14573
ᴇ	-14574
ᴏ	-14575
ṉ	-14576
Ṛ	-14577
ṯ	-14578
ṻ	-14579
Ẕ	-14580
Ộ	-14581
ἀ	-14582
ἆ	-14583
Ἀ	-14584
Ἅ	-14585
ὀ	-14586
ὁ	-14587
ὄ	-14588
ὴ	-14589
⁩	-14590
₫	-14591
₼	-14592
↗	-14593
↬	-14594
∇	-14595
∋	-14596
∟	-14597
∥	-14598
⋮	-14599
⎼	-14600
␦	-14601
⓷	-14602
⓻	-14603
⓼	-14604
⓿	-14605
▍	-14606
▽	-14607
◡	-14608
☃	-14609
☉	-14610
☔	-14611
♈	-14612
♉	-14613
♔	-14614
♭	-14615
⚓	-14616
⚖	-14617
⚾	-14618
⛄	-14619
❇	-14620
❔	-14621
➧	-14622
Ɽ	-14623
ⲏ	-14624
ⲓ	-14625
ⲙ	-14626
Ⲭ	-14627
〜	-14628
ぜ	-14629
ひ	-14630
び	-14631
へ	-14632
よ	-14633
を	-14634
ア	-14635
ェ	-14636
エ	-14637
オ	-14638
サ	-14639
ジ	-14640
ッ	-14641
ツ	-14642
ナ	-14643
ポ	-14644
マ	-14645
ム	-14646
ラ	-14647
リ	-14648
ロ	-14649
㕦	-14650
㘱	-14651
㸴	-14652
䭏	-14653
丁	-14654
丂	-14655
不	-14656
丘	-14657
个	-14658
丹	-14659
乃	-14660
久	-14661
义	-14662
乭	-14663
于	-14664
亥	-14665
以	-14666
们	-14667
件	-14668
任	-14669
伊	-14670
伎	-14671
你	-14672
供	-14673
俊	-14674
俎	-14675
修	-14676
們	-14677
傳	-14678
先	-14679
兵	-14680
其	-14681
冊	-14682
冠	-14683
冤	-14684
击	-14685
刀	-14686
列	-14687
初	-14688
利	-14689
到	-14690
制	-14691
則	-14692
前	-14693
剛	-14694
副	-14695
力	-14696
务	-14697
动	-14698
助	-14699
勅	-14700
勣	-14701
勳	-14702
包	-14703
千	-14704
午	-14705
南	-14706
卣	-14707
卷	-14708
友	-14709
受	-14710
只	-14711
吉	-14712
名	-14713
员	-14714
呪	-14715
命	-14716
哛	-14717
哲	-14718
唐	-14719
商	-14720
嗣	-14721
回	-14722
図	-14723
场	-14724
城	-14725
培	-14726
報	-14727
場	-14728
塚	-14729
境	-14730
墟	-14731
墨	-14732
壩	-14733
夻	-14734
奧	-14735
如	-14736
妄	-14737
姣	-14738
媛	-14739
媤	-14740
嬝	-14741
孔	-14742
孙	-14743
孛	-14744
季	-14745
完	-14746
宣	-14747
密	-14748
寶	-14749
封	-14750
将	-14751
尒	-14752
尺	-14753
尽	-14754
尾	-14755
展	-14756
岡	-14757
峡	-14758
峯	-14759
峽	-14760
嶽	-14761
巭	-14762
布	-14763
平	-14764
広	-14765
庄	-14766
店	-14767
庫	-14768
庶	-14769
康	-14770
廣	-14771
延	-14772
开	-14773
弄	-14774
弟	-14775
张	-14776
当	-14777
彘	-14778
形	-14779
待	-14780
徐	-14781
徳	-14782
忍	-14783
志	-14784
总	-14785
怾	-14786
恃	-14787
恵	-14788
恶	-14789
想	-14790
意	-14791
態	-14792
慶	-14793
應	-14794
户	-14795
手	-14796
承	-14797
技	-14798
投	-14799
按	-14800
授	-14801
探	-14802
推	-14803
摩	-14804
支	-14805
政	-14806
斤	-14807
早	-14808
昕	-14809
星	-14810
昪	-14811
曆	-14812
曌	-14813
最	-14814
有	-14815
服	-14816
期	-14817
札	-14818
术	-14819
朴	-14820
杉	-14821
果	-14822
柱	-14823
査	-14824
校	-14825
梦	-14826
検	-14827
椧	-14828
楊	-14829
業	-14830
標	-14831
欌	-14832
歴	-14833
残	-14834
気	-14835
洗	-14836
洛	-14837
洞	-14838
津	-14839
浄	-14840
淨	-14841
港	-14842
滄	-14843
滴	-14844
澳	-14845
濬	-14846
灣	-14847
為	-14848
熱	-14849
爪	-14850
爱	-14851
爲	-14852
爵	-14853
父	-14854
牛	-14855
牟	-14856
牡	-14857
犯	-14858
独	-14859
狼	-14860
现	-14861
珍	-14862
球	-14863
瑞	-14864
璠	-14865
瓜	-14866
瓿	-14867
甕	-14868
甗	-14869
甦	-14870
甲	-14871
界	-14872
畓	-14873
異	-14874
病	-14875
癸	-14876
登	-14877
監	-14878
眾	-14879
瞾	-14880
矩	-14881
硏	-14882
硯	-14883
碑	-14884
示	-14885
祁	-14886
禁	-14887
禹	-14888
秀	-14889
秋	-14890
科	-14891
税	-14892
端	-14893
篇	-14894
类	-14895
約	-14896
素	-14897
経	-14898
絵	-14899
維	-14900
縣	-14901
總	-14902
繼	-14903
线	-14904
羊	-14905
美	-14906
老	-14907
考	-14908
耕	-14909
聚	-14910
肹	-14911
自	-14912
至	-14913
臿	-14914
興	-14915
舞	-14916
芯	-14917
英	-14918
荊	-14919
荷	-14920
蒼	-14921
蔡	-14922
蕙	-14923
薛	-14924
薦	-14925
虚	-14926
衡	-14927
裸	-14928
視	-14929
角	-14930
記	-14931
訣	-14932
許	-14933
詔	-14934
誕	-14935
課	-14936
請	-14937
諦	-14938
證	-14939
議	-14940
讀	-14941
變	-14942
请	-14943
豆	-14944
豬	-14945
貫	-14946
貴	-14947
賢	-14948
贞	-14949
贯	-14950
赛	-14951
足	-14952
載	-14953
辛	-14954
边	-14955
辽	-14956
迎	-14957
这	-14958
进	-14959
连	-14960
速	-14961
遊	-14962
遍	-14963
遠	-14964
遥	-14965
邑	-14966
鄕	-14967
鄭	-14968
酒	-14969
鈴	-14970
銀	-14971
銭	-14972
錄	-14973
錻	-14974
鐓	-14975
鐘	-14976
鑒	-14977
钱	-14978
閑	-14979
降	-14980
陰	-14981
隐	-14982
雄	-14983
集	-14984
靈	-14985
静	-14986
順	-14987
頉	-14988
頊	-14989
預	-14990
頓	-14991
頼	-14992
顗	-14993
風	-14994
风	-14995
飮	-14996
馬	-14997
鬼	-14998
魏	-14999
魔	-15000
鳳	-15001
麦	-15002
黃	-15003
點	-15004
龙	-15005
갑	-15006
객	-15007
겅	-15008
격	-15009
곡	-15010
균	-15011
긴	-15012
껌	-15013
꽃	-15014
날	-15015
녀	-15016
논	-15017
농	-15018
누	-15019
뉘	-15020
담	-15021
독	-15022
둥	-15023
뒤	-15024
듬	-15025
딸	-15026
렴	-15027
료	-15028
룻	-15029
륜	-15030
륵	-15031
른	-15032
를	-15033
름	-15034
매	-15035
면	-15036
묵	-15037
믿	-15038
밀	-15039
밖	-15040
밤	-15041
배	-15042
법	-15043
벽	-15044
빨	-15045
뿐	-15046
쇠	-15047
숭	-15048
쉬	-15049
씀	-15050
앙	-15051
엄	-15052
엌	-15053
육	-15054
으	-15055
작	-15056
잔	-15057
잘	-15058
젊	-15059
좌	-15060
증	-15061
참	-15062
책	-15063
취	-15064
침	-15065
큰	-15066
탄	-15067
탈	-15068
탐	-15069
팔	-15070
피	-15071
할	-15072
험	-15073
혁	-15074
혈	-15075
흔	-15076
힐	-15077
	-15078
	-15079
	-15080
	-15081
	-15082
	-15083
	-15084
	-15085
	-15086
	-15087
	-15088
	-15089
	-15090
	-15091
	-15092
	-15093
	-15094
	-15095
	-15096
	-15097
	-15098
	-15099
	-15100
	-15101
	-15102
	-15103
	-15104
	-15105
	-15106
🂓	-15107
🅵	-15108
🅽	-15109
🆂	-15110
🆃	-15111
🇨	-15112
🇫	-15113
🇲	-15114
🇾	-15115
🌁	-15116
🌄	-15117
🌋	-15118
🌍	-15119
🍆	-15120
🍎	-15121
🍚	-15122
🍜	-15123
🍟	-15124
🍠	-15125
🍯	-15126
🍰	-15127
🍱	-15128
🍶	-15129
🎢	-15130
🎨	-15131
🎸	-15132
🎹	-15133
🏖	-15134
🏠	-15135
🏡	-15136
🏦	-15137
🏯	-15138
🐂	-15139
🐇	-15140
🐓	-15141
🐯	-15142
👓	-15143
👔	-15144
👗	-15145
👭	-15146
👰	-15147
👼	-15148
💉	-15149
💏	-15150
💒	-15151
💠	-15152
💮	-15153
📀	-15154
📈	-15155
📉	-15156
📩	-15157
🔁	-15158
🔆	-15159
🔋	-15160
🔧	-15161
🔯	-15162
🕉	-15163
🕊	-15164
🕚	-15165
🚇	-15166
🚈	-15167
🚉	-15168
🚓	-15169
🚝	-15170
🚣	-15171
🚧	-15172
🚩	-15173
🛴	-15174
🛵	-15175
🟥	-15176
🟪	-15177
🤚	-15178
🤛	-15179
🤢	-15180
🤵	-15181
🤶	-15182
🥂	-15183
🥃	-15184
🥖	-15185
🥤	-15186
🥦	-15187
🥱	-15188
🥶	-15189
🦁	-15190
🦠	-15191
🧔	-15192
🧛	-15193
🧟	-15194
🧿	-15195
🪗	-15196
🪩	-15197
	-15198
Ë	-15199
Ą	-15200
Ć	-15201
ď	-15202
ĕ	-15203
ĭ	-15204
Ĵ	-15205
Ł	-15206
Ő	-15207
Ŗ	-15208
ţ	-15209
Ǝ	-15210
ƙ	-15211
Ư	-15212
Ʋ	-15213
ǒ	-15214
Ș	-15215
Ȝ	-15216
Ʉ	-15217
Ɇ	-15218
ɘ	-15219
ɣ	-15220
ɧ	-15221
ʂ	-15222
ʉ	-15223
ʍ	-15224
ʏ	-15225
ʙ	-15226
˄	-15227
˅	-15228
˸	-15229
̍	-15230
̤	-15231
̦	-15232
̷	-15233
͆	-15234
Ͷ	-15235
ͷ	-15236
Ϳ	-15237
Έ	-15238
Ξ	-15239
Ϝ	-15240
Ђ	-15241
Ў	-15242
Ю	-15243
ғ	-15244
ҝ	-15245
Ҡ	-15246
Ү	-15247
ө	-15248
ԁ	-15249
Ԝ	-15250
Ԭ	-15251
Ա	-15252
Մ	-15253
Ս	-15254
Ֆ	-15255
խ	-15256
շ	-15257
չ	-15258
ջ	-15259
ֲ	-15260
ֻ	-15261
ֽ	-15262
ؕ	-15263
٢	-15264
٣	-15265
٤	-15266
٥	-15267
٦	-15268
چ	-15269
ڑ	-15270
ڪ	-15271
ڵ	-15272
ې	-15273
۶	-15274
ދ	-15275
ގ	-15276
ޫ	-15277
ޮ	-15278
ߒ	-15279
ङ	-15280
फ	-15281
ळ	-15282
ऽ	-15283
७	-15284
९	-15285
ঙ	-15286
ঞ	-15287
৬	-15288
৭	-15289
ਇ	-15290
ਣ	-15291
ਨ	-15292
ਮ	-15293
ਲ	-15294
਼	-15295
ੋ	-15296
ટ	-15297
િ	-15298
ે	-15299
ଆ	-15300
ଉ	-15301
ଓ	-15302
ଚ	-15303
ଠ	-15304
ଡ	-15305
ଦ	-15306
ମ	-15307
ଯ	-15308
ହ	-15309
଼	-15310
ା	-15311
ୁ	-15312
ୋ	-15313
୍	-15314
ஈ	-15315
ஊ	-15316
ஐ	-15317
ஓ	-15318
ஔ	-15319
ஶ	-15320
௓	-15321
௧	-15322
௨	-15323
௬	-15324
ఆ	-15325
ఇ	-15326
ఎ	-15327
ణ	-15328
బ	-15329
భ	-15330
ಭ	-15331
ಯ	-15332
ಲ	-15333
ಳ	-15334
ಷ	-15335
ೆ	-15336
ೈ	-15337
೫	-15338
೭	-15339
ദ	-15340
ര	-15341
ൃ	-15342
ോ	-15343
൧	-15344
൨	-15345
൩	-15346
൫	-15347
൯	-15348
෌	-15349
ซ	-15350
ญ	-15351
ป	-15352
ฟ	-15353
ษ	-15354
ึ	-15355
๔	-15356
๕	-15357
๗	-15358
ກ	-15359
ຄ	-15360
ງ	-15361
ຈ	-15362
ດ	-15363
ທ	-15364
ຜ	-15365
ະ	-15366
ັ	-15367
ີ	-15368
ຸ	-15369
ເ	-15370
໰	-15371
က	-15372
ခ	-15373
င	-15374
ည	-15375
ဓ	-15376
ယ	-15377
ူ	-15378
း	-15379
ျ	-15380
ှ	-15381
၁	-15382
၄	-15383
၅	-15384
၆	-15385
ბ	-15386
გ	-15387
ნ	-15388
პ	-15389
ტ	-15390
ღ	-15391
ᅯ	-15392
ᅴ	-15393
ሁ	-15394
ለ	-15395
መ	-15396
ሚ	-15397
በ	-15398
ታ	-15399
እ	-15400
ኩ	-15401
ካ	-15402
ኬ	-15403
ዝ	-15404
ገ	-15405
Ꮃ	-15406
ᐃ	-15407
ᐍ	-15408
ᐏ	-15409
ᐣ	-15410
ᐦ	-15411
ᓀ	-15412
ᔭ	-15413
ᗷ	-15414
ᗺ	-15415
ᚦ	-15416
ᚨ	-15417
ᚱ	-15418
ᚾ	-15419
ᛟ	-15420
ញ	-15421
ហ	-15422
េ	-15423
ᠠ	-15424
ᠢ	-15425
ᠳ	-15426
ᬅ	-15427
ᬓ	-15428
ᬩ	-15429
ᬭ	-15430
ᬮ	-15431
ᬲ	-15432
ᬶ	-15433
᭄	-15434
ᴛ	-15435
ᴜ	-15436
ᴠ	-15437
Ḥ	-15438
ṛ	-15439
ṝ	-15440
ṟ	-15441
ṳ	-15442
Ầ	-15443
ẽ	-15444
Ế	-15445
ỉ	-15446
Ọ	-15447
ἕ	-15448
Ἐ	-15449
Ἕ	-15450
ὑ	-15451
ὲ	-15452
ὶ	-15453
ῇ	-15454
Ῥ	-15455
⁚	-15456
⁪	-15457
₣	-15458
₤	-15459
₮	-15460
₱	-15461
₲	-15462
₳	-15463
₵	-15464
↙	-15465
↳	-15466
↴	-15467
↻	-15468
⇋	-15469
⇐	-15470
∨	-15471
≫	-15472
⊗	-15473
⌊	-15474
⌋	-15475
⌥	-15476
⌨	-15477
─	-15478
┌	-15479
┐	-15480
◗	-15481
☄	-15482
☜	-15483
☟	-15484
☭	-15485
☰	-15486
♄	-15487
♕	-15488
♗	-15489
♘	-15490
♚	-15491
♢	-15492
♻	-15493
⚧	-15494
⚽	-15495
⛈	-15496
⛏	-15497
⛓	-15498
⛷	-15499
✎	-15500
✕	-15501
✛	-15502
❆	-15503
❡	-15504
❼	-15505
➌	-15506
⠟	-15507
⠱	-15508
⠵	-15509
⠷	-15510
⠻	-15511
⤭	-15512
Ⱡ	-15513
Ⱨ	-15514
ⲟ	-15515
⶯	-15516
〔	-15517
〕	-15518
ぎ	-15519
ご	-15520
ざ	-15521
ず	-15522
そ	-15523
ち	-15524
ぶ	-15525
べ	-15526
ほ	-15527
ク	-15528
ス	-15529
テ	-15530
ド	-15531
ネ	-15532
バ	-15533
ピ	-15534
ホ	-15535
メ	-15536
レ	-15537
㮜	-15538
䮦	-15539
丕	-15540
东	-15541
两	-15542
丸	-15543
乐	-15544
也	-15545
书	-15546
亞	-15547
介	-15548
仓	-15549
付	-15550
仲	-15551
传	-15552
伯	-15553
位	-15554
低	-15555
住	-15556
佼	-15557
倒	-15558
借	-15559
健	-15560
储	-15561
僕	-15562
億	-15563
儒	-15564
優	-15565
充	-15566
克	-15567
免	-15568
入	-15569
兮	-15570
兰	-15571
关	-15572
内	-15573
冰	-15574
决	-15575
凯	-15576
出	-15577
刑	-15578
划	-15579
则	-15580
別	-15581
劄	-15582
办	-15583
勉	-15584
務	-15585
勢	-15586
匹	-15587
卒	-15588
協	-15589
博	-15590
卜	-15591
卡	-15592
卫	-15593
印	-15594
压	-15595
厩	-15596
县	-15597
反	-15598
发	-15599
句	-15600
司	-15601
听	-15602
吳	-15603
吴	-15604
哀	-15605
員	-15606
哥	-15607
園	-15608
圖	-15609
基	-15610
堡	-15611
塔	-15612
塩	-15613
売	-15614
変	-15615
复	-15616
外	-15617
多	-15618
失	-15619
夷	-15620
奉	-15621
奎	-15622
妤	-15623
委	-15624
姬	-15625
婕	-15626
宁	-15627
実	-15628
室	-15629
害	-15630
富	-15631
寧	-15632
对	-15633
専	-15634
專	-15635
尋	-15636
尔	-15637
島	-15638
崇	-15639
崔	-15640
巴	-15641
巾	-15642
希	-15643
帖	-15644
帮	-15645
帯	-15646
帶	-15647
幕	-15648
广	-15649
庆	-15650
庇	-15651
床	-15652
廳	-15653
建	-15654
弓	-15655
影	-15656
很	-15657
後	-15658
徒	-15659
御	-15660
復	-15661
徹	-15662
応	-15663
恭	-15664
息	-15665
悌	-15666
悪	-15667
情	-15668
惕	-15669
或	-15670
戴	-15671
戶	-15672
房	-15673
才	-15674
打	-15675
披	-15676
拉	-15677
指	-15678
捕	-15679
据	-15680
掃	-15681
換	-15682
搜	-15683
攻	-15684
救	-15685
斎	-15686
斗	-15687
料	-15688
旗	-15689
无	-15690
旨	-15691
旭	-15692
时	-15693
显	-15694
晉	-15695
更	-15696
曼	-15697
朗	-15698
末	-15699
朱	-15700
杜	-15701
条	-15702
查	-15703
核	-15704
根	-15705
桁	-15706
桃	-15707
梅	-15708
楚	-15709
楼	-15710
楽	-15711
櫛	-15712
次	-15713
永	-15714
江	-15715
沈	-15716
沪	-15717
河	-15718
治	-15719
泉	-15720
波	-15721
泰	-15722
派	-15723
浅	-15724
济	-15725
浚	-15726
淑	-15727
済	-15728
渤	-15729
潔	-15730
点	-15731
焕	-15732
煙	-15733
燈	-15734
燭	-15735
獄	-15736
獻	-15737
玄	-15738
玻	-15739
琪	-15740
瑜	-15741
璃	-15742
用	-15743
田	-15744
男	-15745
番	-15746
痩	-15747
發	-15748
百	-15749
皓	-15750
盆	-15751
盛	-15752
盜	-15753
知	-15754
码	-15755
硬	-15756
磐	-15757
礼	-15758
禮	-15759
秦	-15760
立	-15761
站	-15762
筆	-15763
箱	-15764
節	-15765
篮	-15766
粮	-15767
系	-15768
索	-15769
紹	-15770
統	-15771
约	-15772
纽	-15773
组	-15774
织	-15775
络	-15776
统	-15777
署	-15778
群	-15779
而	-15780
联	-15781
肉	-15782
胡	-15783
胤	-15784
腕	-15785
膳	-15786
臘	-15787
舍	-15788
良	-15789
节	-15790
芝	-15791
芸	-15792
苏	-15793
茂	-15794
范	-15795
茉	-15796
茶	-15797
荣	-15798
莉	-15799
莎	-15800
葱	-15801
蒙	-15802
蔵	-15803
處	-15804
虽	-15805
血	-15806
衛	-15807
衣	-15808
被	-15809
裂	-15810
裔	-15811
裕	-15812
裵	-15813
見	-15814
覚	-15815
観	-15816
观	-15817
觉	-15818
言	-15819
試	-15820
誰	-15821
諸	-15822
警	-15823
计	-15824
议	-15825
记	-15826
讲	-15827
话	-15828
语	-15829
说	-15830
诸	-15831
诺	-15832
课	-15833
貼	-15834
贊	-15835
贛	-15836
账	-15837
质	-15838
费	-15839
起	-15840
身	-15841
車	-15842
载	-15843
达	-15844
过	-15845
近	-15846
退	-15847
連	-15848
過	-15849
適	-15850
郞	-15851
鄒	-15852
鄧	-15853
采	-15854
量	-15855
鎧	-15856
鏡	-15857
银	-15858
镇	-15859
长	-15860
閨	-15861
阪	-15862
防	-15863
限	-15864
险	-15865
隠	-15866
隣	-15867
雅	-15868
雨	-15869
雲	-15870
霊	-15871
霍	-15872
面	-15873
題	-15874
類	-15875
领	-15876
館	-15877
験	-15878
驟	-15879
马	-15880
黄	-15881
ꍏ	-15882
각	-15883
감	-15884
갱	-15885
견	-15886
글	-15887
급	-15888
낙	-15889
눌	-15890
든	-15891
등	-15892
뜨	-15893
랑	-15894
립	-15895
맹	-15896
반	-15897
빛	-15898
솔	-15899
습	-15900
없	-15901
었	-15902
외	-15903
융	-15904
응	-15905
있	-15906
잉	-15907
축	-15908
칠	-15909
팽	-15910
포	-15911
휘	-15912
흑	-15913
흠	-15914
	-15915
	-15916
	-15917
	-15918
	-15919
	-15920
	-15921
	-15922
	-15923
	-15924
	-15925
	-15926
	-15927
	-15928
	-15929
	-15930
	-15931
	-15932
	-15933
	-15934
	-15935
	-15936
︢	-15937
𑘚	-15938
𑘦	-15939
𑘲	-15940
𑘻	-15941
𑜉	-15942
𑜑	-15943
𑜒	-15944
𑜠	-15945
𑜨	-15946
🆓	-15947
🆙	-15948
🇬	-15949
🇭	-15950
🇯	-15951
🇿	-15952
🌭	-15953
🌽	-15954
🍄	-15955
🍉	-15956
🍒	-15957
🍔	-15958
🍘	-15959
🍙	-15960
🍣	-15961
🍸	-15962
🎙	-15963
🎤	-15964
🎭	-15965
🎲	-15966
🎺	-15967
🏁	-15968
🏧	-15969
🏬	-15970
🏰	-15971
🏺	-15972
🐐	-15973
🐗	-15974
🐚	-15975
🐭	-15976
🐻	-15977
🐾	-15978
👣	-15979
👵	-15980
👶	-15981
👷	-15982
💂	-15983
💆	-15984
💎	-15985
💤	-15986
💩	-15987
💭	-15988
💸	-15989
📆	-15990
📑	-15991
📦	-15992
📰	-15993
🔐	-15994
🔑	-15995
🔮	-15996
